{
  "<EOS>": 0,
  "<GO>": 1,
  "<UNK>": 2,
  ".": 3,
  ",": 4,
  "ich": 5,
  "Tom": 6,
  "ist": 7,
  "?": 8,
  "nicht": 9,
  "das": 10,
  "die": 11,
  "du": 12,
  "zu": 13,
  "Sie": 14,
  "er": 15,
  "es": 16,
  "der": 17,
  "in": 18,
  "hat": 19,
  "ein": 20,
  "und": 21,
  "dass": 22,
  "!": 23,
  "auf": 24,
  "mir": 25,
  "wir": 26,
  "was": 27,
  "eine": 28,
  "habe": 29,
  "sich": 30,
  "mit": 31,
  "den": 32,
  "Maria": 33,
  "sie": 34,
  "wie": 35,
  "war": 36,
  "mich": 37,
  "an": 38,
  "von": 39,
  "haben": 40,
  "ihr": 41,
  "als": 42,
  "sind": 43,
  "für": 44,
  "kann": 45,
  "dem": 46,
  "einen": 47,
  "&quot;": 48,
  "so": 49,
  "bin": 50,
  "im": 51,
  "sein": 52,
  "dich": 53,
  "hast": 54,
  "noch": 55,
  "aus": 56,
  "um": 57,
  "wenn": 58,
  "sehr": 59,
  "dir": 60,
  "uns": 61,
  "wird": 62,
  "hier": 63,
  "nach": 64,
  "etwas": 65,
  "meine": 66,
  "vor": 67,
  "mein": 68,
  "schon": 69,
  "ihn": 70,
  "warum": 71,
  "weiß": 72,
  "werden": 73,
  "tun": 74,
  "man": 75,
  "diese": 76,
  "viel": 77,
  "wurde": 78,
  "über": 79,
  "keine": 80,
  "nur": 81,
  "hatte": 82,
  "zum": 83,
  "gut": 84,
  "einem": 85,
  "nichts": 86,
  "will": 87,
  "mehr": 88,
  "bei": 89,
  "bitte": 90,
  "gehen": 91,
  "ver@@": 92,
  "seine": 93,
  "ihm": 94,
  "bist": 95,
  "des": 96,
  "aber": 97,
  "immer": 98,
  "dieses": 99,
  "werde": 100,
  "am": 101,
  "machen": 102,
  "nie": 103,
  "sagte": 104,
  "wo": 105,
  "sagen": 106,
  "heute": 107,
  "wer": 108,
  "da": 109,
  "einer": 110,
  "möchte": 111,
  "alle": 112,
  "be@@": 113,
  "würde": 114,
  "gesagt": 115,
  "viele": 116,
  "gibt": 117,
  "auch": 118,
  "oder": 119,
  "können": 120,
  "kein": 121,
  "jetzt": 122,
  "Mary": 123,
  "euch": 124,
  "Geld": 125,
  "muss": 126,
  "Buch": 127,
  "er@@": 128,
  "Zeit": 129,
  "sei": 130,
  "gerade": 131,
  "deine": 132,
  "ten": 133,
  "seinen": 134,
  "Leben": 135,
  "wissen": 136,
  "geht": 137,
  "wollte": 138,
  "Hause": 139,
  "ihre": 140,
  "kannst": 141,
  "alles": 142,
  "mag": 143,
  "einmal": 144,
  "dieser": 145,
  "dein": 146,
  "kommt": 147,
  "Boston": 148,
  "wirklich": 149,
  "wieder": 150,
  "habt": 151,
  "waren": 152,
  "mal": 153,
  "Johannes": 154,
  "Toms": 155,
  "hätte": 156,
  "zur": 157,
  "sehen": 158,
  "glaube": 159,
  "macht": 160,
  "Ihnen": 161,
  "gerne": 162,
  "ohne": 163,
  "Vater": 164,
  "Schule": 165,
  "konnte": 166,
  "ge@@": 167,
  "kam": 168,
  "doch": 169,
  "drei": 170,
  "sprechen": 171,
  "keinen": 172,
  "besser": 173,
  "meinen": 174,
  "Tag": 175,
  "gesehen": 176,
  "ob": 177,
  "soll": 178,
  "gestern": 179,
  "an@@": 180,
  "lassen": 181,
  "Arbeit": 182,
  "helfen": 183,
  "müssen": 184,
  "Auto": 185,
  "diesem": 186,
  "getan": 187,
  "Zimmer": 188,
  "Jahre": 189,
  "te": 190,
  "Mann": 191,
  "lange": 192,
  "einfach": 193,
  "-": 194,
  "zwei": 195,
  "sollte": 196,
  "morgen": 197,
  "Französisch": 198,
  "willst": 199,
  "könnte": 200,
  "seiner": 201,
  "sah": 202,
  "gemacht": 203,
  "kommen": 204,
  "Mutter": 205,
  "Kinder": 206,
  "s": 207,
  "wäre": 208,
  "sch@@": 209,
  "un@@": 210,
  "Frau": 211,
  "k@@": 212,
  "K@@": 213,
  "diesen": 214,
  "ein@@": 215,
  "ging": 216,
  "Haus": 217,
  "Welt": 218,
  "essen": 219,
  "sagt": 220,
  "bis": 221,
  "davon": 222,
  "damit": 223,
  "wollen": 224,
  "Menschen": 225,
  "dann": 226,
  "niemand": 227,
  "oft": 228,
  "alt": 229,
  "durch": 230,
  "seinem": 231,
  "meiner": 232,
  "ins": 233,
  "@-@": 234,
  "Jahr": 235,
  "aus@@": 236,
  "lass": 237,
  "Leute": 238,
  "Uhr": 239,
  "spricht": 240,
  "schnell": 241,
  "geben": 242,
  "wann": 243,
  "Englisch": 244,
  "dort": 245,
  "über@@": 246,
  "Sch@@": 247,
  "t@@": 248,
  "meinem": 249,
  "Hund": 250,
  "allein": 251,
  "solltest": 252,
  "sicher": 253,
  "musst": 254,
  "ab@@": 255,
  "Ver@@": 256,
  "Tür": 257,
  "sagten": 258,
  "selbst": 259,
  "seit": 260,
  "gab": 261,
  "&apos;": 262,
  "ganz": 263,
  "gern": 264,
  "Mädchen": 265,
  "zurück": 266,
  "spielen": 267,
  "en@@": 268,
  "gen": 269,
  ":": 270,
  "denn": 271,
  "Schwester": 272,
  "weißt": 273,
  "zu@@": 274,
  "Land": 275,
  "sollen": 276,
  "unter": 277,
  "gekommen": 278,
  "st": 279,
  "gekauft": 280,
  "Eltern": 281,
  "jeden": 282,
  "en": 283,
  "beim": 284,
  "ge": 285,
  "Freunde": 286,
  "zusammen": 287,
  "vielleicht": 288,
  "gehört": 289,
  "ab": 290,
  "vor@@": 291,
  "schön": 292,
  "ihren": 293,
  "fahren": 294,
  "g@@": 295,
  "wusste": 296,
  "bleiben": 297,
  "halten": 298,
  "fast": 299,
  "vom": 300,
  "d@@": 301,
  "genug": 302,
  "Nacht": 303,
  "H@@": 304,
  "Angst": 305,
  "auf@@": 306,
  "ter": 307,
  "sieht": 308,
  "sollten": 309,
  "andere": 310,
  "denke": 311,
  "z@@": 312,
  "tut": 313,
  "Mal": 314,
  "schwer": 315,
  "chen": 316,
  "s@@": 317,
  "glauben": 318,
  "eines": 319,
  "Familie": 320,
  "st@@": 321,
  "kaufen": 322,
  "Problem": 323,
  "Ihre": 324,
  "weil": 325,
  "hören": 326,
  "Sprache": 327,
  "ung": 328,
  "lang": 329,
  "gegangen": 330,
  "nahm": 331,
  "fertig": 332,
  "lernen": 333,
  "paar": 334,
  "Kind": 335,
  "b@@": 336,
  "glücklich": 337,
  "weg": 338,
  "Straße": 339,
  "ch@@": 340,
  "darüber": 341,
  "wirst": 342,
  "scheint": 343,
  "W@@": 344,
  "einige": 345,
  "jemand": 346,
  "erst": 347,
  "Elke": 348,
  "Wasser": 349,
  "dachte": 350,
  "Be@@": 351,
  ";": 352,
  "gute": 353,
  "letzten": 354,
  "ste": 355,
  "ent@@": 356,
  "Freund": 357,
  "An@@": 358,
  "m@@": 359,
  "dazu": 360,
  "bekommen": 361,
  "beschäftigt": 362,
  "F@@": 363,
  "Junge": 364,
  "seid": 365,
  "nehmen": 366,
  "um@@": 367,
  "Frage": 368,
  "gewesen": 369,
  "schen": 370,
  "groß": 371,
  "letzte": 372,
  "Woche": 373,
  "n@@": 374,
  "lesen": 375,
  "schreiben": 376,
  "Lehrer": 377,
  "reden": 378,
  "Wort": 379,
  "Namen": 380,
  "ganze": 381,
  "steht": 382,
  "deinen": 383,
  "passiert": 384,
  "gar": 385,
  "R@@": 386,
  "gegessen": 387,
  "Jahren": 388,
  "sten": 389,
  "Bruder": 390,
  "große": 391,
  "gt": 392,
  "bereits": 393,
  "Brief": 394,
  "sondern": 395,
  "neuen": 396,
  "leben": 397,
  "recht": 398,
  "während": 399,
  "hin": 400,
  "los": 401,
  "ja": 402,
  "wohl": 403,
  "zehn": 404,
  "A@@": 405,
  "beide": 406,
  "brauchen": 407,
  "jeder": 408,
  "komm": 409,
  "überhaupt": 410,
  "de": 411,
  "Japan": 412,
  "würdest": 413,
  "liegt": 414,
  "Abend": 415,
  "B@@": 416,
  "wurden": 417,
  "Kaffee": 418,
  "unsere": 419,
  "daran": 420,
  "gefällt": 421,
  "Sohn": 422,
  "bald": 423,
  "fragte": 424,
  "Ein@@": 425,
  "Augen": 426,
  "gehe": 427,
  "starb": 428,
  "g": 429,
  "ihrer": 430,
  "Stadt": 431,
  "S@@": 432,
  "Herr": 433,
  "wegen": 434,
  "tet": 435,
  "früher": 436,
  "früh": 437,
  "lieber": 438,
  "Fehler": 439,
  "lebt": 440,
  "hatten": 441,
  "Morgen": 442,
  "Er@@": 443,
  "Australien": 444,
  "weit": 445,
  "spät": 446,
  "Marias": 447,
  "verloren": 448,
  "dabei": 449,
  "ganzen": 450,
  "hätten": 451,
  "musste": 452,
  "unter@@": 453,
  "anderen": 454,
  "sag": 455,
  "bat": 456,
  "je": 457,
  "vergessen": 458,
  "krank": 459,
  "wahr": 460,
  "ere": 461,
  "deiner": 462,
  "gefallen": 463,
  "eure": 464,
  "gesprochen": 465,
  "Zug": 466,
  "wünschte": 467,
  "stellen": 468,
  "gelesen": 469,
  "erinnern": 470,
  "genau": 471,
  "Spaß": 472,
  "gte": 473,
  "getroffen": 474,
  "f@@": 475,
  "re@@": 476,
  "versucht": 477,
  "brauche": 478,
  "Un@@": 479,
  "Idee": 480,
  "darf": 481,
  "kaum": 482,
  "al@@": 483,
  "Bett": 484,
  "unser": 485,
  "isst": 486,
  "finden": 487,
  "fünf": 488,
  "Nachricht": 489,
  "gegen": 490,
  "worden": 491,
  "kenne": 492,
  "be": 493,
  "Liebe": 494,
  "Geschichte": 495,
  "würden": 496,
  "ert": 497,
  "sche": 498,
  "denken": 499,
  "Feuer": 500,
  "ger": 501,
  "Aus@@": 502,
  "Weg": 503,
  "Wagen": 504,
  "Stunden": 505,
  "G@@": 506,
  "de@@": 507,
  "dafür": 508,
  "ungen": 509,
  "hättest": 510,
  "gib": 511,
  "ende": 512,
  "bevor": 513,
  "komme": 514,
  "r@@": 515,
  "Grund": 516,
  "Hilfe": 517,
  "le@@": 518,
  "verstehe": 519,
  "Ende": 520,
  "Fenster": 521,
  "Vor@@": 522,
  "bringen": 523,
  "stimmt": 524,
  "Menge": 525,
  "Bild": 526,
  "schwimmen": 527,
  "beste": 528,
  "in@@": 529,
  "liche": 530,
  "Bücher": 531,
  "hörte": 532,
  "P@@": 533,
  "Bahnhof": 534,
  "el@@": 535,
  "müde": 536,
  "ck@@": 537,
  "leicht": 538,
  "Tage": 539,
  "hoffe": 540,
  "sprach": 541,
  "Raum": 542,
  "sp@@": 543,
  "Stunde": 544,
  "hin@@": 545,
  "Essen": 546,
  "ließ": 547,
  "l@@": 548,
  "L@@": 549,
  "geschrieben": 550,
  "bringt": 551,
  "Licht": 552,
  "wenig": 553,
  "bestimmt": 554,
  "sofort": 555,
  "verstehen": 556,
  "T@@": 557,
  "Büro": 558,
  "seien": 559,
  "gefunden": 560,
  "kennen": 561,
  "richtig": 562,
  "allen": 563,
  "end": 564,
  "ne": 565,
  "welche": 566,
  "ziemlich": 567,
  "e": 568,
  "der@@": 569,
  "weniger": 570,
  "schlafen": 571,
  "alte": 572,
  "gleich": 573,
  "ihrem": 574,
  "nächsten": 575,
  "all": 576,
  "Minuten": 577,
  "St@@": 578,
  "guter": 579,
  "gegeben": 580,
  "trägt": 581,
  "könnten": 582,
  "Wahrheit": 583,
  "verdient": 584,
  "Tisch": 585,
  "isch": 586,
  "neues": 587,
  "ersten": 588,
  "darauf": 589,
  "spielt": 590,
  "ei@@": 591,
  "machte": 592,
  "Katze": 593,
  "lichen": 594,
  "machst": 595,
  "allem": 596,
  "Fuß": 597,
  "weiter": 598,
  "deinem": 599,
  "arbeiten": 600,
  "ben": 601,
  "welches": 602,
  "braucht": 603,
  "Bus": 604,
  "Sorgen": 605,
  "Hand": 606,
  "keiner": 607,
  "ausge@@": 608,
  "trinken": 609,
  "endlich": 610,
  "danke": 611,
  "Gesicht": 612,
  "laufen": 613,
  "Z@@": 614,
  "Meinung": 615,
  "geworden": 616,
  "ßen": 617,
  "Musik": 618,
  "einzige": 619,
  "gebeten": 620,
  "sonst": 621,
  "cken": 622,
  "ihnen": 623,
  "eren": 624,
  "begann": 625,
  "reich": 626,
  "alten": 627,
  "tragen": 628,
  "leid": 629,
  "liebe": 630,
  "tes": 631,
  "M@@": 632,
  "brauchst": 633,
  "sage": 634,
  "le": 635,
  "versuchte": 636,
  "neue": 637,
  "wei@@": 638,
  "t": 639,
  "finde": 640,
  "bisschen": 641,
  "Monat": 642,
  "E@@": 643,
  "Ge@@": 644,
  "Dollar": 645,
  "Gesundheit": 646,
  "jedes": 647,
  "Sonne": 648,
  "schien": 649,
  "saß": 650,
  "kennengelernt": 651,
  "erte": 652,
  "ar@@": 653,
  "Deutsch": 654,
  "ger@@": 655,
  "ü@@": 656,
  "unserer": 657,
  "Polizei": 658,
  "dies": 659,
  "besteht": 660,
  "mache": 661,
  "erste": 662,
  "stand": 663,
  "her@@": 664,
  "wohnt": 665,
  "gehst": 666,
  "Erde": 667,
  "Antwort": 668,
  "i@@": 669,
  "lich": 670,
  "hielt": 671,
  "möglich": 672,
  "hör": 673,
  "e@@": 674,
  "zeigen": 675,
  "Jungen": 676,
  "her": 677,
  "Schwierigkeiten": 678,
  "nen": 679,
  "Tasche": 680,
  "etwa": 681,
  "ft": 682,
  "könnt": 683,
  "möchtest": 684,
  "fährt": 685,
  "versuchen": 686,
  "ange@@": 687,
  "lässt": 688,
  "D@@": 689,
  "Abendessen": 690,
  "ß@@": 691,
  "Fahrrad": 692,
  "stehen": 693,
  "Freundin": 694,
  "Tochter": 695,
  "jung": 696,
  "gelernt": 697,
  "Sache": 698,
  "eigentlich": 699,
  "p@@": 700,
  "Sinn": 701,
  "wert": 702,
  "Nein": 703,
  "treffen": 704,
  "draußen": 705,
  "len": 706,
  "Fragen": 707,
  "egal": 708,
  "men": 709,
  "Art": 710,
  "ken": 711,
  "Rat": 712,
  "Lust": 713,
  "Bier": 714,
  "passt": 715,
  "langsam": 716,
  "fragen": 717,
  "n": 718,
  "darum": 719,
  "Schlüssel": 720,
  "kt": 721,
  "setzen": 722,
  "ich@@": 723,
  "Hausaufgaben": 724,
  "versch@@": 725,
  "lei@@": 726,
  "gebracht": 727,
  "mögen": 728,
  "Ab@@": 729,
  "interessiert": 730,
  "au@@": 731,
  "Satz": 732,
  "Über@@": 733,
  "eln": 734,
  "außer": 735,
  "Lieblings@@": 736,
  "wichtig": 737,
  "könntest": 738,
  "verrückt": 739,
  "ti@@": 740,
  "fand": 741,
  "fing": 742,
  "Frühstück": 743,
  "meisten": 744,
  "manchmal": 745,
  "Gott": 746,
  "Baum": 747,
  "än@@": 748,
  "später": 749,
  "länger": 750,
  "hei@@": 751,
  "Dinge": 752,
  "großen": 753,
  "bekannt": 754,
  "ziehen": 755,
  "kalt": 756,
  "glaubst": 757,
  "anders": 758,
  "Deutschland": 759,
  "klein": 760,
  "Haare": 761,
  "Seite": 762,
  "Geburtstag": 763,
  "frage": 764,
  "i": 765,
  "Ihr": 766,
  "also": 767,
  "Reise": 768,
  "ten@@": 769,
  "besuchen": 770,
  "älter": 771,
  "wahrscheinlich": 772,
  "schlief": 773,
  "k": 774,
  "tot": 775,
  "meines": 776,
  "o@@": 777,
  "Kuchen": 778,
  "ern": 779,
  "ri@@": 780,
  "sehe": 781,
  "rief": 782,
  "Mensch": 783,
  "ben@@": 784,
  "gestorben": 785,
  "gesch@@": 786,
  "gen@@": 787,
  "freundlich": 788,
  "ler": 789,
  "Name": 790,
  "voller": 791,
  "durch@@": 792,
  "Person": 793,
  "Tiere": 794,
  "Schuhe": 795,
  "bereit": 796,
  "di@@": 797,
  "Prüfung": 798,
  "lieben": 799,
  "Vereinigten": 800,
  "z": 801,
  "genommen": 802,
  "fiel": 803,
  "Unter@@": 804,
  "völlig": 805,
  "O@@": 806,
  "or@@": 807,
  "Preis": 808,
  "Frauen": 809,
  "erzählt": 810,
  "Plan": 811,
  "zwischen": 812,
  "aufhören": 813,
  "einander": 814,
  "glaubten": 815,
  "geheiratet": 816,
  "Party": 817,
  "fällt": 818,
  "Unfall": 819,
  "cke": 820,
  "warten": 821,
  "heißt": 822,
  "stellte": 823,
  "kommst": 824,
  "geschafft": 825,
  "Glück": 826,
  "a@@": 827,
  "Stimme": 828,
  "ts@@": 829,
  "gestohlen": 830,
  "ck": 831,
  "dorthin": 832,
  "gewöhnlich": 833,
  "zwar": 834,
  "Regen": 835,
  "lernt": 836,
  "Erfolg": 837,
  "singen": 838,
  "tue": 839,
  "gst": 840,
  "niemanden": 841,
  "tig": 842,
  "weh": 843,
  "hängt": 844,
  "hinter": 845,
  "brach": 846,
  "verlieren": 847,
  "Film": 848,
  "wussten": 849,
  "ges": 850,
  "freue": 851,
  "gehören": 852,
  "Eichhörnchen": 853,
  "tat": 854,
  "verlor": 855,
  "h@@": 856,
  "m": 857,
  "Brot": 858,
  "Spiel": 859,
  "liebt": 860,
  "vorbei": 861,
  "herum": 862,
  "arbeitete": 863,
  "ständig": 864,
  "Sprachen": 865,
  "tu": 866,
  "legen": 867,
  "li@@": 868,
  "half": 869,
  "ch": 870,
  "tel": 871,
  "C@@": 872,
  "höre": 873,
  "sti@@": 874,
  "Klavier": 875,
  "wollten": 876,
  "Laden": 877,
  "wem": 878,
  "ie": 879,
  "rufen": 880,
  "enden": 881,
  "Kom@@": 882,
  "ä@@": 883,
  "zurück@@": 884,
  "schneller": 885,
  "beiden": 886,
  "lasst": 887,
  "verliebt": 888,
  "verkaufen": 889,
  "sechs": 890,
  "u@@": 891,
  "dreißig": 892,
  "arbeitet": 893,
  "nehme": 894,
  "Wein": 895,
  "ische": 896,
  "erklären": 897,
  "geholfen": 898,
  "fe": 899,
  "jemanden": 900,
  "Nähe": 901,
  "tz@@": 902,
  "möchten": 903,
  "gefragt": 904,
  "verbringen": 905,
  "Garten": 906,
  "fest": 907,
  "Staaten": 908,
  "Großvater": 909,
  "verletzt": 910,
  "Glas": 911,
  "tzt": 912,
  "verlassen": 913,
  "redet": 914,
  "chten": 915,
  "test": 916,
  "regnen": 917,
  "Strand": 918,
  "zog": 919,
  "bleibt": 920,
  "studieren": 921,
  "heiß": 922,
  "eigenen": 923,
  "denkst": 924,
  "zufrieden": 925,
  "h": 926,
  "ha@@": 927,
  "kurz": 928,
  "cht": 929,
  "hoch": 930,
  "Zeitung": 931,
  "ss@@": 932,
  "warst": 933,
  "besten": 934,
  "Pro@@": 935,
  "Fisch": 936,
  "verheiratet": 937,
  "tust": 938,
  "Hotel": 939,
  "nächstes": 940,
  "Studenten": 941,
  "frei": 942,
  "r": 943,
  "Traum": 944,
  "neben": 945,
  "halte": 946,
  "schöne": 947,
  "Klasse": 948,
  "scheinen": 949,
  "schau": 950,
  "Bob": 951,
  "stark": 952,
  "Kleid": 953,
  "gel@@": 954,
  "Wahl": 955,
  "Tennis": 956,
  "natürlich": 957,
  "Stelle": 958,
  "blieb": 959,
  "darfst": 960,
  "Hunger": 961,
  "gefährlich": 962,
  "Anzug": 963,
  "vier": 964,
  "erzählen": 965,
  "solche": 966,
  "ter@@": 967,
  "setzte": 968,
  "Ruhe": 969,
  "plötzlich": 970,
  "erk@@": 971,
  "ckt": 972,
  "si@@": 973,
  "ke": 974,
  "gewonnen": 975,
  "tr@@": 976,
  "Entscheidung": 977,
  "öffnen": 978,
  "Kopf": 979,
  "liebte": 980,
  "angekommen": 981,
  "froh": 982,
  "Fluss": 983,
  "wohin": 984,
  "b": 985,
  "nachdem": 986,
  "Arzt": 987,
  "ba@@": 988,
  "ö@@": 989,
  "oben": 990,
  "he": 991,
  "Haar": 992,
  "findest": 993,
  "elt": 994,
  "halb": 995,
  "wollt": 996,
  "et@@": 997,
  "nach@@": 998,
  "irgendwo": 999,
  "spiele": 1000,
  "möglicherweise": 1001,
  "heiraten": 1002,
  "Schüler": 1003,
  "wen": 1004,
  "Gras": 1005,
  "brachte": 1006,
  "rei@@": 1007,
  "erreichen": 1008,
  "entschuldigen": 1009,
  "hab": 1010,
  "bezahlen": 1011,
  "obwohl": 1012,
  "Besuch": 1013,
  "nun": 1014,
  "wach": 1015,
  "Universität": 1016,
  "alleine": 1017,
  "bel@@": 1018,
  "Mund": 1019,
  "chte": 1020,
  "kleinen": 1021,
  "König": 1022,
  "30": 1023,
  "Lied": 1024,
  "Krankenhaus": 1025,
  "Adresse": 1026,
  "tt": 1027,
  "langweilig": 1028,
  "ändern": 1029,
  "kennst": 1030,
  "warte": 1031,
  "klar": 1032,
  "seines": 1033,
  "drei@@": 1034,
  "scht": 1035,
  "erwartet": 1036,
  "nett": 1037,
  "em@@": 1038,
  "fen": 1039,
  "erinnert": 1040,
  "Zu@@": 1041,
  "denkt": 1042,
  "Unternehmen": 1043,
  "versuche": 1044,
  "lte": 1045,
  "d": 1046,
  "sterben": 1047,
  "Wand": 1048,
  "tt@@": 1049,
  "on@@": 1050,
  "Fußball": 1051,
  "niemandem": 1052,
  "Telefon": 1053,
  "wa@@": 1054,
  "Au@@": 1055,
  "kümmern": 1056,
  "überrascht": 1057,
  "legte": 1058,
  "laut": 1059,
  "kamen": 1060,
  "John": 1061,
  "eingeladen": 1062,
  "Sp@@": 1063,
  "anzu@@": 1064,
  "fühlte": 1065,
  "nächste": 1066,
  "Foto": 1067,
  "liest": 1068,
  "gewartet": 1069,
  "ra@@": 1070,
  "Eindruck": 1071,
  "ums": 1072,
  "gewinnen": 1073,
  "Sätze": 1074,
  "trotz": 1075,
  "magst": 1076,
  "me": 1077,
  "j@@": 1078,
  "größer": 1079,
  "spreche": 1080,
  "geschehen": 1081,
  "w@@": 1082,
  "weder": 1083,
  "tigen": 1084,
  "guten": 1085,
  "Recht": 1086,
  "fuhr": 1087,
  "fürchte": 1088,
  "Ma@@": 1089,
  "Prozent": 1090,
  "gingen": 1091,
  "anderes": 1092,
  "besucht": 1093,
  "erzählte": 1094,
  "gef@@": 1095,
  "schlechter": 1096,
  "In@@": 1097,
  "hört": 1098,
  "Hut": 1099,
  "schrieb": 1100,
  "V@@": 1101,
  "Japaner": 1102,
  "Auge": 1103,
  "niemals": 1104,
  "Woher": 1105,
  "meinst": 1106,
  "unten": 1107,
  "Freunden": 1108,
  "lebte": 1109,
  "leisten": 1110,
  "vorsichtig": 1111,
  "zen": 1112,
  "ber@@": 1113,
  "sches": 1114,
  "Karte": 1115,
  "bezahlt": 1116,
  "dran": 1117,
  "erfahren": 1118,
  "ur@@": 1119,
  "weise": 1120,
  "gung": 1121,
  "ungefähr": 1122,
  "wüsste": 1123,
  "zt": 1124,
  "Bein": 1125,
  "Erfahrung": 1126,
  "letztes": 1127,
  "Platz": 1128,
  "Ahnung": 1129,
  "Blumen": 1130,
  "gebe": 1131,
  "Brüder": 1132,
  "Al@@": 1133,
  "Park": 1134,
  "Küche": 1135,
  "Tee": 1136,
  "gefahren": 1137,
  "sagst": 1138,
  "geblieben": 1139,
  "getötet": 1140,
  "wären": 1141,
  "schloss": 1142,
  "tung": 1143,
  "solltet": 1144,
  "hal@@": 1145,
  "bei@@": 1146,
  "geschickt": 1147,
  "Urlaub": 1148,
  "Mittagessen": 1149,
  "te@@": 1150,
  "wan@@": 1151,
  "kennt": 1152,
  "fern": 1153,
  "mach": 1154,
  "scheiden": 1155,
  "as": 1156,
  "Vögel": 1157,
  "miteinander": 1158,
  "Wohnung": 1159,
  "zuhause": 1160,
  "voll": 1161,
  "schreibt": 1162,
  "hättet": 1163,
  "sse": 1164,
  "for@@": 1165,
  "Kino": 1166,
  "Angelegenheit": 1167,
  "wieso": 1168,
  "lachen": 1169,
  "mochte": 1170,
  "Pass": 1171,
  "schlecht": 1172,
  "arbeit": 1173,
  "leiden": 1174,
  "glaubt": 1175,
  "Kamera": 1176,
  "zeit": 1177,
  "verließ": 1178,
  "Krieg": 1179,
  "ale": 1180,
  "lautet": 1181,
  "reisen": 1182,
  "mi@@": 1183,
  "Kindern": 1184,
  "Teil": 1185,
  "anrufen": 1186,
  "Telefonnummer": 1187,
  "bedeutet": 1188,
  "haft": 1189,
  "jede": 1190,
  "hän@@": 1191,
  "Mit@@": 1192,
  "Oktober": 1193,
  "äu@@": 1194,
  "bitten": 1195,
  "bar": 1196,
  "Flugzeug": 1197,
  "siehst": 1198,
  "Probleme": 1199,
  "ne@@": 1200,
  "Frankreich": 1201,
  "sprichst": 1202,
  "vorstellen": 1203,
  "Fahr@@": 1204,
  "Winter": 1205,
  "hörst": 1206,
  "eigene": 1207,
  "Hunde": 1208,
  "wä@@": 1209,
  "ene": 1210,
  "Tode": 1211,
  "ihres": 1212,
  "ster": 1213,
  "einzu@@": 1214,
  "se": 1215,
  "kaufte": 1216,
  "Gebäude": 1217,
  "Sami": 1218,
  "führen": 1219,
  "Tränen": 1220,
  "ze": 1221,
  "tige": 1222,
  "Amerikaner": 1223,
  "Entschuldige": 1224,
  "gegenüber": 1225,
  "Geschenk": 1226,
  "tanzen": 1227,
  "Feier": 1228,
  "ser": 1229,
  "sobald": 1230,
  "versteht": 1231,
  "ens": 1232,
  "kte": 1233,
  "Kar@@": 1234,
  "scher": 1235,
  "zuvor": 1236,
  "vielen": 1237,
  "ell": 1238,
  "ll@@": 1239,
  "Mantel": 1240,
  "schauen": 1241,
  "Luft": 1242,
  "da@@": 1243,
  "Wörterbuch": 1244,
  "em": 1245,
  "müsst": 1246,
  "che": 1247,
  "Freude": 1248,
  "Re@@": 1249,
  "reparieren": 1250,
  "Tatoeba": 1251,
  "rot": 1252,
  "ta@@": 1253,
  "sta@@": 1254,
  "th@@": 1255,
  "Sachen": 1256,
  "neu": 1257,
  "geschlossen": 1258,
  "ap@@": 1259,
  "hasse": 1260,
  "l": 1261,
  "besorgt": 1262,
  "Aufgabe": 1263,
  "still": 1264,
  "lo@@": 1265,
  "unschuldig": 1266,
  "führt": 1267,
  "voll@@": 1268,
  "Bet@@": 1269,
  "Vergangenheit": 1270,
  "vollkommen": 1271,
  "los@@": 1272,
  "bt": 1273,
  "Yen": 1274,
  "vergiss": 1275,
  "Tod": 1276,
  "zer@@": 1277,
  "streiten": 1278,
  "war@@": 1279,
  "funktioniert": 1280,
  "Fleisch": 1281,
  "eu@@": 1282,
  "Sofa": 1283,
  "N@@": 1284,
  "dr@@": 1285,
  "lä@@": 1286,
  "Wetter": 1287,
  "Ausland": 1288,
  "bring": 1289,
  "eins": 1290,
  "fer@@": 1291,
  "studiert": 1292,
  "J@@": 1293,
  "schlug": 1294,
  "gi@@": 1295,
  "handeln": 1296,
  "Tagebuch": 1297,
  "versprochen": 1298,
  "eh@@": 1299,
  "gearbeitet": 1300,
  "Lebens@@": 1301,
  "weiter@@": 1302,
  "sen": 1303,
  "schließlich": 1304,
  "ß": 1305,
  "dürfen": 1306,
  "ern@@": 1307,
  "bringe": 1308,
  "Ka@@": 1309,
  "Künstler": 1310,
  "hel@@": 1311,
  "anfangen": 1312,
  "auszu@@": 1313,
  "ot@@": 1314,
  "trinkt": 1315,
  "rechtzeitig": 1316,
  "Sti@@": 1317,
  "heit": 1318,
  "verärgert": 1319,
  "Nachmittag": 1320,
  "len@@": 1321,
  "Ger@@": 1322,
  "Gitarre": 1323,
  "ken@@": 1324,
  "gelassen": 1325,
  "läuft": 1326,
  "Rechnung": 1327,
  "stehe": 1328,
  "teilen": 1329,
  "kümmert": 1330,
  "Möglichkeit": 1331,
  "behalten": 1332,
  "fü@@": 1333,
  "we@@": 1334,
  "ßt": 1335,
  "Projekt": 1336,
  "lernte": 1337,
  "geschlagen": 1338,
  "ges@@": 1339,
  "denen": 1340,
  "Wei@@": 1341,
  "fangen": 1342,
  "Gefahr": 1343,
  "Rauchen": 1344,
  "standen": 1345,
  "kleiner": 1346,
  "Kl@@": 1347,
  "großer": 1348,
  "beigebracht": 1349,
  "vertrauen": 1350,
  "lebe": 1351,
  "Lehrerin": 1352,
  "Fa@@": 1353,
  "irgendwie": 1354,
  "ente": 1355,
  "nimm": 1356,
  "Tages": 1357,
  "Milch": 1358,
  "satz": 1359,
  "daher": 1360,
  "schade": 1361,
  "re": 1362,
  "tz": 1363,
  "Gefühle": 1364,
  "bte": 1365,
  "Montag": 1366,
  "statt": 1367,
  "küssen": 1368,
  "angefangen": 1369,
  "böse": 1370,
  "schte": 1371,
  "det": 1372,
  "geküsst": 1373,
  "Himmel": 1374,
  "arbeitslos": 1375,
  "jemals": 1376,
  "ruhig": 1377,
  "Land@@": 1378,
  "unmöglich": 1379,
  "gel": 1380,
  "ehrlich": 1381,
  "Lebens": 1382,
  "ser@@": 1383,
  "Geheimnis": 1384,
  "ankommen": 1385,
  "unde": 1386,
  "geliebt": 1387,
  "ni@@": 1388,
  "Beine": 1389,
  "sch": 1390,
  "Le@@": 1391,
  "blau": 1392,
  "nennen": 1393,
  "ster@@": 1394,
  "wütend": 1395,
  "är@@": 1396,
  "Flughafen": 1397,
  "acht": 1398,
  "Anfang": 1399,
  "Sonnen@@": 1400,
  "y@@": 1401,
  "gespielt": 1402,
  "at": 1403,
  "tete": 1404,
  "welchem": 1405,
  "Händen": 1406,
  "besitzt": 1407,
  "Um@@": 1408,
  "Eis": 1409,
  "Äpfel": 1410,
  "manche": 1411,
  "Jane": 1412,
  "spazieren": 1413,
  "tisch": 1414,
  "o": 1415,
  "ber": 1416,
  "Gr@@": 1417,
  "falls": 1418,
  "kleine": 1419,
  "normalerweise": 1420,
  "schlechte": 1421,
  "Laune": 1422,
  "Lächeln": 1423,
  "Stift": 1424,
  "Student": 1425,
  "benutzen": 1426,
  "Hallo": 1427,
  "wolle": 1428,
  "Wochenende": 1429,
  "jemandem": 1430,
  "weinen": 1431,
  "brauchte": 1432,
  "kostet": 1433,
  "Kon@@": 1434,
  "Gedanken": 1435,
  "einge@@": 1436,
  "Tagen": 1437,
  "at@@": 1438,
  "Schul@@": 1439,
  "ner": 1440,
  "Chance": 1441,
  "gleichen": 1442,
  "unbedingt": 1443,
  "Amerika": 1444,
  "schaft": 1445,
  "Onkel": 1446,
  "Messer": 1447,
  "Worte": 1448,
  "hältst": 1449,
  "rufe": 1450,
  "Nase": 1451,
  "passieren": 1452,
  "Verantwortung": 1453,
  "New": 1454,
  "sprachen": 1455,
  "Dorf": 1456,
  "gek@@": 1457,
  "besonders": 1458,
  "Ar@@": 1459,
  "holen": 1460,
  "Weise": 1461,
  "den@@": 1462,
  "hält": 1463,
  "Bibliothek": 1464,
  "Str@@": 1465,
  "tigkeit": 1466,
  "befindet": 1467,
  "Ges@@": 1468,
  "unseren": 1469,
  "stolz": 1470,
  "ur": 1471,
  "wartete": 1472,
  "Geschäft": 1473,
  "trug": 1474,
  "damals": 1475,
  "schlagen": 1476,
  "zwanzig": 1477,
  "gutes": 1478,
  "heben": 1479,
  "schwierig": 1480,
  "wisst": 1481,
  "Pferd": 1482,
  "ungs@@": 1483,
  "zuerst": 1484,
  "Angebot": 1485,
  "teuer": 1486,
  "ruf": 1487,
  "schaffen": 1488,
  "selber": 1489,
  "vier@@": 1490,
  "and@@": 1491,
  "igen": 1492,
  "zieht": 1493,
  "trat": 1494,
  "genauso": 1495,
  "Spanisch": 1496,
  "Autos": 1497,
  "Vaters": 1498,
  "dahin": 1499,
  "Stell": 1500,
  "tion": 1501,
  "frei@@": 1502,
  "derjenige": 1503,
  "lau@@": 1504,
  "geändert": 1505,
  "schreien": 1506,
  "is@@": 1507,
  "York": 1508,
  "schlechten": 1509,
  "Na@@": 1510,
  "Katzen": 1511,
  "Apfel": 1512,
  "dete": 1513,
  "sucht": 1514,
  "Herzen": 1515,
  "Bank": 1516,
  "llen": 1517,
  "zählen": 1518,
  "Preise": 1519,
  "Gefühl": 1520,
  "Frieden": 1521,
  "Kerl": 1522,
  "fressen": 1523,
  "derte": 1524,
  "reichen": 1525,
  "Türe": 1526,
  "Rede": 1527,
  "Insekten": 1528,
  "Kraft": 1529,
  "10": 1530,
  "stimmte": 1531,
  "suche": 1532,
  "selten": 1533,
  "Restaurant": 1534,
  "to@@": 1535,
  "ausgezeichnet": 1536,
  "frag": 1537,
  "gebrochen": 1538,
  "Erkältung": 1539,
  "Qu@@": 1540,
  "U@@": 1541,
  "aussieht": 1542,
  "erinnere": 1543,
  "ann@@": 1544,
  "Meer": 1545,
  "heraus": 1546,
  "Bu@@": 1547,
  "Form": 1548,
  "gend": 1549,
  "erledigt": 1550,
  "Ti@@": 1551,
  "unterhalten": 1552,
  "halt": 1553,
  "Schuld": 1554,
  "dern": 1555,
  "erinnerst": 1556,
  "unrecht": 1557,
  "schu@@": 1558,
  "Unterricht": 1559,
  "lerne": 1560,
  "lief": 1561,
  "überzeugt": 1562,
  "gewohnt": 1563,
  "os@@": 1564,
  "indem": 1565,
  "groß@@": 1566,
  "starken": 1567,
  "Paris": 1568,
  "Erklärung": 1569,
  "warf": 1570,
  "Computer": 1571,
  "stelle": 1572,
  "Talent": 1573,
  "wahr@@": 1574,
  "kannte": 1575,
  "Schachtel": 1576,
  "flie@@": 1577,
  "betr@@": 1578,
  "Großmutter": 1579,
  "Thema": 1580,
  "ckte": 1581,
  "lö@@": 1582,
  "Allgemeinen": 1583,
  "Gefängnis": 1584,
  "ma@@": 1585,
  "griff": 1586,
  "ischen": 1587,
  "tief": 1588,
  "Schreibtisch": 1589,
  "na@@": 1590,
  "Moment": 1591,
  "ka@@": 1592,
  "tze": 1593,
  "Minute": 1594,
  "stellt": 1595,
  "ers": 1596,
  "Mar@@": 1597,
  "hungrig": 1598,
  "pp@@": 1599,
  "sa@@": 1600,
  "gesetzt": 1601,
  "Gelegenheit": 1602,
  "rate": 1603,
  "Füße": 1604,
  "Wald": 1605,
  "erledigen": 1606,
  "Taxi": 1607,
  "entfernt": 1608,
  "erwischt": 1609,
  "dar@@": 1610,
  "it@@": 1611,
  "setzt": 1612,
  "Töchter": 1613,
  "Socken": 1614,
  "wart": 1615,
  "gerufen": 1616,
  "entlang": 1617,
  "gl@@": 1618,
  "findet": 1619,
  "neun": 1620,
  "star@@": 1621,
  "schreibe": 1622,
  "wartet": 1623,
  "junge": 1624,
  "im@@": 1625,
  "Ihrer": 1626,
  "Männer": 1627,
  "Baseball": 1628,
  "Sprich": 1629,
  "liches": 1630,
  "Auf@@": 1631,
  "Zukunft": 1632,
  "Zweifel": 1633,
  "Ha@@": 1634,
  "feh@@": 1635,
  "lag": 1636,
  "lese": 1637,
  "langen": 1638,
  "Herz": 1639,
  "eben": 1640,
  "letzter": 1641,
  "qu@@": 1642,
  "verstanden": 1643,
  "tre@@": 1644,
  "aufs": 1645,
  "la@@": 1646,
  "Fall": 1647,
  "wünsche": 1648,
  "schneit": 1649,
  "iert": 1650,
  "Firma": 1651,
  "es@@": 1652,
  "sen@@": 1653,
  "heim@@": 1654,
  "Schloss": 1655,
  "Ta@@": 1656,
  "Farbe": 1657,
  "bar@@": 1658,
  "verschiedene": 1659,
  "euer": 1660,
  "anderer": 1661,
  "aufgewachsen": 1662,
  "lösen": 1663,
  "ori@@": 1664,
  "tte": 1665,
  "am@@": 1666,
  "Eier": 1667,
  "gu@@": 1668,
  "mehrere": 1669,
  "dauern": 1670,
  "beibringen": 1671,
  "Mannes": 1672,
  "Kanada": 1673,
  "win@@": 1674,
  "angetan": 1675,
  "lu@@": 1676,
  "drüben": 1677,
  "mmer": 1678,
  "ün@@": 1679,
  "sitzt": 1680,
  "großes": 1681,
  "hattest": 1682,
  "br@@": 1683,
  "öffnete": 1684,
  "kaufe": 1685,
  "beginnen": 1686,
  "Teufel": 1687,
  "benutzt": 1688,
  "tä@@": 1689,
  "schaften": 1690,
  "Obst": 1691,
  "zwei@@": 1692,
  "fliegen": 1693,
  "wäscht": 1694,
  "gewaschen": 1695,
  "lustig": 1696,
  "x@@": 1697,
  "schätzen": 1698,
  "mü@@": 1699,
  "us": 1700,
  "Millionen": 1701,
  "on": 1702,
  "Dank": 1703,
  "licher": 1704,
  "iss": 1705,
  "warm": 1706,
  "schicken": 1707,
  "entschieden": 1708,
  "sauer": 1709,
  "genden": 1710,
  "ausgehen": 1711,
  "sk@@": 1712,
  "weg@@": 1713,
  "hundert": 1714,
  "icht": 1715,
  "tau@@": 1716,
  "geb@@": 1717,
  "ans": 1718,
  "rechts": 1719,
  "hörten": 1720,
  "Ban@@": 1721,
  "hierher": 1722,
  "China": 1723,
  "Präsident": 1724,
  "ru@@": 1725,
  "I@@": 1726,
  "fünfzig": 1727,
  "lie@@": 1728,
  "japanische": 1729,
  "Ex@@": 1730,
  "Kiste": 1731,
  "befreundet": 1732,
  "us@@": 1733,
  "Rei@@": 1734,
  "ernst": 1735,
  "wärest": 1736,
  "rannte": 1737,
  "tag": 1738,
  "genannt": 1739,
  "ft@@": 1740,
  "Ordnung": 1741,
  "esse": 1742,
  "mm": 1743,
  "eher": 1744,
  "Fernseher": 1745,
  "elle": 1746,
  "hässlich": 1747,
  "Mühe": 1748,
  "sahen": 1749,
  "a": 1750,
  "Ä@@": 1751,
  "mit@@": 1752,
  "du@@": 1753,
  "rä@@": 1754,
  "Ent@@": 1755,
  "dan@@": 1756,
  "kom@@": 1757,
  "jedoch": 1758,
  "davor": 1759,
  "La@@": 1760,
  "hr@@": 1761,
  "nachdenken": 1762,
  "hilft": 1763,
  "Versuch": 1764,
  "aß": 1765,
  "großartig": 1766,
  "Fieber": 1767,
  "verantwortlich": 1768,
  "jedem": 1769,
  "Patient": 1770,
  "wachte": 1771,
  "wie@@": 1772,
  "sorgen": 1773,
  "gerettet": 1774,
  "Radio": 1775,
  "Regeln": 1776,
  "alität": 1777,
  "Kauf": 1778,
  "wär": 1779,
  "aufzuhören": 1780,
  "aufgrund": 1781,
  "lasse": 1782,
  "Anfänger": 1783,
  "schlu@@": 1784,
  "%": 1785,
  "Buchladen": 1786,
  "5": 1787,
  "zuhören": 1788,
  "Soldaten": 1789,
  "Euro": 1790,
  "erwartete": 1791,
  "Gewalt": 1792,
  "rie@@": 1793,
  "könntet": 1794,
  "fe@@": 1795,
  "ehe": 1796,
  "cht@@": 1797,
  "aner": 1798,
  "tieren": 1799,
  "Tat": 1800,
  "Artikel": 1801,
  "beru@@": 1802,
  "ine": 1803,
  "tzen": 1804,
  "Lesen": 1805,
  "and": 1806,
  "Tasse": 1807,
  "trinke": 1808,
  "Studentin": 1809,
  "schüchtern": 1810,
  "hen": 1811,
  "ol@@": 1812,
  "üb@@": 1813,
  "Sprach@@": 1814,
  "ach@@": 1815,
  "f": 1816,
  "We@@": 1817,
  "Lage": 1818,
  "gehalten": 1819,
  "Netz@@": 1820,
  "aufzu@@": 1821,
  "rotes": 1822,
  "Ken": 1823,
  "ände": 1824,
  "Alter": 1825,
  "schuld": 1826,
  "bereiten": 1827,
  "Rest": 1828,
  "anscheinend": 1829,
  "und@@": 1830,
  "weint": 1831,
  "sin@@": 1832,
  "umgebracht": 1833,
  "drin": 1834,
  "schü@@": 1835,
  "gesucht": 1836,
  "mei@@": 1837,
  "Versprechen": 1838,
  "England": 1839,
  "drinnen": 1840,
  "beobachtet": 1841,
  "Gemüse": 1842,
  "verwandt": 1843,
  "Neu@@": 1844,
  "mm@@": 1845,
  "Bericht": 1846,
  "raus": 1847,
  "Diskussion": 1848,
  "Doktor": 1849,
  "ing": 1850,
  "Waffen": 1851,
  "Fernsehen": 1852,
  "aller@@": 1853,
  "gelaufen": 1854,
  "schließen": 1855,
  "Hügel": 1856,
  "mann": 1857,
  "zeigt": 1858,
  "angerufen": 1859,
  "all@@": 1860,
  "Planet": 1861,
  "wer@@": 1862,
  "wofür": 1863,
  "nahme": 1864,
  "glaubte": 1865,
  "zahl": 1866,
  "abgeschlossen": 1867,
  "schwache": 1868,
  "Medikament": 1869,
  "Fußboden": 1870,
  "ut": 1871,
  "unterscheiden": 1872,
  "fre@@": 1873,
  "Krankheit": 1874,
  "6": 1875,
  "Gel@@": 1876,
  "tern": 1877,
  "lachte": 1878,
  "verliebte": 1879,
  "beg@@": 1880,
  "suchen": 1881,
  "beeindruckt": 1882,
  "lagen": 1883,
  "jene": 1884,
  "beantwortet": 1885,
  "trauen": 1886,
  "icht@@": 1887,
  "Gebt": 1888,
  "2": 1889,
  "fer": 1890,
  "nötig": 1891,
  "ali@@": 1892,
  "saßen": 1893,
  "beantworten": 1894,
  "fri@@": 1895,
  "Fü@@": 1896,
  "unternehmen": 1897,
  "gemeinsam": 1898,
  "zugehen": 1899,
  "Ach": 1900,
  "Konzert": 1901,
  "gibst": 1902,
  "geredet": 1903,
  "sel@@": 1904,
  "irgendeine": 1905,
  "jungen": 1906,
  "arbeite": 1907,
  "Auto@@": 1908,
  "unbe@@": 1909,
  "trank": 1910,
  "verbracht": 1911,
  "Haupt@@": 1912,
  "mt": 1913,
  "verstehst": 1914,
  "tiert": 1915,
  "fach": 1916,
  "Dieb": 1917,
  "kleines": 1918,
  "Stuhl": 1919,
  "ür@@": 1920,
  "wagen": 1921,
  "bringst": 1922,
  "schönen": 1923,
  "welcher": 1924,
  "übrig": 1925,
  "Gedicht": 1926,
  "hübsch": 1927,
  "kon@@": 1928,
  "län@@": 1929,
  "passierte": 1930,
  "rauchen": 1931,
  "ker": 1932,
  "Europa": 1933,
  "kocht": 1934,
  "aussehen": 1935,
  "Job": 1936,
  "müsste": 1937,
  "dergleichen": 1938,
  "om@@": 1939,
  "Vogel": 1940,
  "nte": 1941,
  "ziert": 1942,
  "Brief@@": 1943,
  "stri@@": 1944,
  "Bescheid": 1945,
  "herein@@": 1946,
  "Pi@@": 1947,
  "roten": 1948,
  "See": 1949,
  "nutzlos": 1950,
  "Her@@": 1951,
  "Jahres": 1952,
  "arm": 1953,
  "Kirche": 1954,
  "solchen": 1955,
  "töten": 1956,
  "Heimweg": 1957,
  "Weihnachten": 1958,
  "fünf@@": 1959,
  "kochen": 1960,
  "welchen": 1961,
  "erten": 1962,
  "nahmen": 1963,
  "täte": 1964,
  "teil": 1965,
  "Gespräch": 1966,
  "rö@@": 1967,
  "entkommen": 1968,
  "falsch": 1969,
  "Oh": 1970,
  "Regenschirm": 1971,
  "Dame": 1972,
  "endes": 1973,
  "licht": 1974,
  "fallen": 1975,
  "fa@@": 1976,
  "stü@@": 1977,
  "stellung": 1978,
  "stimmen": 1979,
  "Einzige": 1980,
  "elten": 1981,
  "Schiff": 1982,
  "gestellt": 1983,
  "Mittag": 1984,
  "uss@@": 1985,
  "Nachbarn": 1986,
  "tlich": 1987,
  "Witze": 1988,
  "Willen": 1989,
  "...": 1990,
  "steh@@": 1991,
  "berühmt": 1992,
  "Insel": 1993,
  "Ber@@": 1994,
  "erstes": 1995,
  "u": 1996,
  "Regen@@": 1997,
  "Schauspielerin": 1998,
  "Kilometer": 1999,
  "pro": 2000,
  "hier@@": 2001,
  "wohl@@": 2002,
  "Wörter": 2003,
  "dagegen": 2004,
  "gaben": 2005,
  "pla@@": 2006,
  "erwarten": 2007,
  "hielten": 2008,
  "zunächst": 2009,
  "pfen": 2010,
  "wo@@": 2011,
  "rich@@": 2012,
  "allzu": 2013,
  "Esperanto": 2014,
  "werdet": 2015,
  "fol@@": 2016,
  "Verkehr": 2017,
  "irgendwann": 2018,
  "Tor": 2019,
  "Ich": 2020,
  "hart": 2021,
  "hübsche": 2022,
  "gewusst": 2023,
  "tiv": 2024,
  "fl@@": 2025,
  "schaut": 2026,
  "Rechner": 2027,
  "mischen": 2028,
  "Mo@@": 2029,
  "schuldig": 2030,
  "Suppe": 2031,
  "Sieh": 2032,
  "Absicht": 2033,
  "öffne": 2034,
  "gesund": 2035,
  "ak@@": 2036,
  "Ko@@": 2037,
  "Briefe": 2038,
  "meint": 2039,
  "Dingen": 2040,
  "schei@@": 2041,
  "worüber": 2042,
  "Rücken": 2043,
  "tritt": 2044,
  "sprache": 2045,
  "schaute": 2046,
  "men@@": 2047,
  "Herrn": 2048,
  "se@@": 2049,
  "ts": 2050,
  "Ihren": 2051,
  "geboren": 2052,
  "Küchen@@": 2053,
  "leer": 2054,
  "cher": 2055,
  "Gesellschaft": 2056,
  "Armen": 2057,
  "hü@@": 2058,
  "hingehen": 2059,
  "las": 2060,
  "Gra@@": 2061,
  "sie@@": 2062,
  "Kleidung": 2063,
  "al": 2064,
  "eifersüchtig": 2065,
  "Male": 2066,
  "gew@@": 2067,
  "fühle": 2068,
  "gebrauchen": 2069,
  "geschah": 2070,
  "solle": 2071,
  "deswegen": 2072,
  "hand@@": 2073,
  "wi@@": 2074,
  "zufällig": 2075,
  "Spaziergang": 2076,
  "erkenne": 2077,
  "lung": 2078,
  "mitt@@": 2079,
  "Hemd": 2080,
  "Schwestern": 2081,
  "fühlt": 2082,
  "Kim": 2083,
  "Leider": 2084,
  "lügen": 2085,
  "Papier": 2086,
  "Reichtum": 2087,
  "nu@@": 2088,
  "ko@@": 2089,
  "or": 2090,
  "verurteilt": 2091,
  "hieß": 2092,
  "Kartoffeln": 2093,
  "os": 2094,
  "elf": 2095,
  "keiten": 2096,
  "Polizist": 2097,
  "haus": 2098,
  "Schlaf": 2099,
  "Beste": 2100,
  "irgendetwas": 2101,
  "echt": 2102,
  "ganzes": 2103,
  "zimmer": 2104,
  "Hände": 2105,
  "fall": 2106,
  "ler@@": 2107,
  "Ohren": 2108,
  "Ergebnis": 2109,
  "keit": 2110,
  "jener": 2111,
  "gedenkst": 2112,
  "Zigaretten": 2113,
  "Mücken": 2114,
  "umbringen": 2115,
  "Koffer": 2116,
  "Sommer": 2117,
  "Treffen": 2118,
  "teten": 2119,
  "wal@@": 2120,
  "vermisst": 2121,
  "mitzu@@": 2122,
  "schreib": 2123,
  "Ärger": 2124,
  "elte": 2125,
  "zusehen": 2126,
  "Wasser@@": 2127,
  "dringend": 2128,
  "Kampf": 2129,
  "unge@@": 2130,
  "Test": 2131,
  "erkennen": 2132,
  "zählt": 2133,
  "schöner": 2134,
  "Karten": 2135,
  "bare": 2136,
  "täglich": 2137,
  "ignoriert": 2138,
  "kompliziert": 2139,
  "nervös": 2140,
  "zer": 2141,
  "spit@@": 2142,
  "eigenes": 2143,
  "reist": 2144,
  "ungslos": 2145,
  "wählen": 2146,
  "mach@@": 2147,
  "delt": 2148,
  "probiert": 2149,
  "hinterlassen": 2150,
  "heutzutage": 2151,
  "stimme": 2152,
  "reich@@": 2153,
  "bester": 2154,
  "Wa@@": 2155,
  "nä@@": 2156,
  "tom@@": 2157,
  "betrat": 2158,
  "alen": 2159,
  "Sitzung": 2160,
  "erlangen": 2161,
  "Fl@@": 2162,
  "ik@@": 2163,
  "schau@@": 2164,
  "heißen": 2165,
  "Getränke": 2166,
  "Lei@@": 2167,
  "geh@@": 2168,
  "gleiche": 2169,
  "stre@@": 2170,
  "pa@@": 2171,
  "ör@@": 2172,
  "lege": 2173,
  "befinden": 2174,
  "verhindern": 2175,
  "Paar": 2176,
  "nimmt": 2177,
  "Waschen": 2178,
  "so@@": 2179,
  "geschossen": 2180,
  "hrt": 2181,
  "Schach": 2182,
  "net": 2183,
  "ff@@": 2184,
  "Ste@@": 2185,
  "Tier": 2186,
  "fuhren": 2187,
  "Neptun": 2188,
  "hervor": 2189,
  "erwachsen": 2190,
  "liebsten": 2191,
  "schlag": 2192,
  "Bei@@": 2193,
  "fäl@@": 2194,
  "Entschuldigung": 2195,
  "leihen": 2196,
  "bereitet": 2197,
  "Ess@@": 2198,
  "Politiker": 2199,
  "20": 2200,
  "fliegt": 2201,
  "geln": 2202,
  "losen": 2203,
  "erklärte": 2204,
  "Wissenschaftler": 2205,
  "el": 2206,
  "Ei@@": 2207,
  "schrank": 2208,
  "kauf@@": 2209,
  "lud": 2210,
  "karten": 2211,
  "Bananen": 2212,
  "taub": 2213,
  "Po@@": 2214,
  "Lösung": 2215,
  "Witz": 2216,
  "gelben": 2217,
  "zwölf": 2218,
  "fassen": 2219,
  "Bleistift": 2220,
  "Unterschied": 2221,
  "Tatsache": 2222,
  "gere": 2223,
  "Bill": 2224,
  "sowieso": 2225,
  "Pizza": 2226,
  "zerbrochen": 2227,
  "hole": 2228,
  "Hoffnung": 2229,
  "allmählich": 2230,
  "Fe@@": 2231,
  "Schlange": 2232,
  "Boden": 2233,
  "gelang": 2234,
  "übersetzen": 2235,
  "land": 2236,
  "bewegen": 2237,
  "sprang": 2238,
  "sei@@": 2239,
  "unhöflich": 2240,
  "hte": 2241,
  "bessere": 2242,
  "vertraut": 2243,
  "ell@@": 2244,
  "Schn@@": 2245,
  "schl@@": 2246,
  "ters": 2247,
  "dert": 2248,
  "Schönheit": 2249,
  "köstlich": 2250,
  "Beleidigung": 2251,
  "Diät": 2252,
  "Ideen": 2253,
  "sollst": 2254,
  "Informationen": 2255,
  "Salz": 2256,
  "Kyōto": 2257,
  "zufolge": 2258,
  "gin@@": 2259,
  "zeich@@": 2260,
  "geglaubt": 2261,
  "küsste": 2262,
  "verschwunden": 2263,
  "Freundschaft": 2264,
  "kü@@": 2265,
  "Li@@": 2266,
  "komm@@": 2267,
  "richtige": 2268,
  "voneinander": 2269,
  "verhaftet": 2270,
  "schneiden": 2271,
  "aller": 2272,
  "fehlt": 2273,
  "asse": 2274,
  "stes": 2275,
  "isches": 2276,
  "besuchte": 2277,
  "suchte": 2278,
  "oo@@": 2279,
  "wusstest": 2280,
  "Berg": 2281,
  "lan@@": 2282,
  "klei@@": 2283,
  "Pullover": 2284,
  "Milliarden": 2285,
  "Kunden": 2286,
  "je@@": 2287,
  "tzte": 2288,
  "Tokio": 2289,
  "fahre": 2290,
  "Liter": 2291,
  "20.": 2292,
  "Gefallen": 2293,
  "hö@@": 2294,
  "Pläne": 2295,
  "besch@@": 2296,
  "geraten": 2297,
  "Verkehrsunfall": 2298,
  "Chinesisch": 2299,
  "cker": 2300,
  "ran@@": 2301,
  "onen": 2302,
  "handelt": 2303,
  "ul@@": 2304,
  "lächelte": 2305,
  "Sänger": 2306,
  "verpasst": 2307,
  "me@@": 2308,
  "namens": 2309,
  "Herz@@": 2310,
  "dlich": 2311,
  "wirkt": 2312,
  "rein@@": 2313,
  "tter@@": 2314,
  "drücken": 2315,
  "mäch@@": 2316,
  "kostete": 2317,
  "trä@@": 2318,
  "abzu@@": 2319,
  "nisse": 2320,
  "häufig": 2321,
  "schlägt": 2322,
  "tan@@": 2323,
  "Krankenschwester": 2324,
  "könne": 2325,
  "tu@@": 2326,
  "Gesch@@": 2327,
  "Ursache": 2328,
  "Stiefel": 2329,
  "süchtig": 2330,
  "zumindest": 2331,
  "gs": 2332,
  "Filme": 2333,
  "glich": 2334,
  "Temperatur": 2335,
  "Spiel@@": 2336,
  "vorgeschlagen": 2337,
  "Dusche": 2338,
  "Spieler": 2339,
  "vorge@@": 2340,
  "wet@@": 2341,
  "eil": 2342,
  "it": 2343,
  "aushalten": 2344,
  "dessen": 2345,
  "amerikanische": 2346,
  "ku@@": 2347,
  "tiger": 2348,
  "Ru@@": 2349,
  "leck@@": 2350,
  "verläuft": 2351,
  "mu@@": 2352,
  "Brasilien": 2353,
  "Konferenz": 2354,
  "französische": 2355,
  "kl@@": 2356,
  "unden": 2357,
  "gän@@": 2358,
  "leu@@": 2359,
  "machten": 2360,
  "traf": 2361,
  "nt": 2362,
  "gefolgt": 2363,
  "blich": 2364,
  "bedeu@@": 2365,
  "chen@@": 2366,
  "geschieht": 2367,
  "nig": 2368,
  "Thomas": 2369,
  "Bäume": 2370,
  "Angelegenheiten": 2371,
  "füllen": 2372,
  "ziehe": 2373,
  "aufpassen": 2374,
  "leben@@": 2375,
  "meinte": 2376,
  "sche@@": 2377,
  "Typen": 2378,
  "alter": 2379,
  "gefähr@@": 2380,
  "Ruhestand": 2381,
  "Mike": 2382,
  "blickte": 2383,
  "größten": 2384,
  "endete": 2385,
  "bekommst": 2386,
  "Grund@@": 2387,
  "Erdbeben": 2388,
  "Supermarkt": 2389,
  "ir@@": 2390,
  "disch": 2391,
  "bekomme": 2392,
  "passen": 2393,
  "danach": 2394,
  "Papa": 2395,
  "unterbrechen": 2396,
  "unsicher": 2397,
  "Rad": 2398,
  "Bes@@": 2399,
  "überfahren": 2400,
  "steigen": 2401,
  "Japanisch": 2402,
  "worfen": 2403,
  "sagtest": 2404,
  "beweisen": 2405,
  "freuen": 2406,
  "les@@": 2407,
  "Kor@@": 2408,
  "Vorsitzenden": 2409,
  "Gedanke": 2410,
  "verwendet": 2411,
  "gten": 2412,
  "betrunken": 2413,
  "solange": 2414,
  "dest": 2415,
  "wonach": 2416,
  "ichts": 2417,
  "schrecklich": 2418,
  "fängt": 2419,
  "besprechen": 2420,
  "erster": 2421,
  "mer": 2422,
  "gem@@": 2423,
  "Kunst": 2424,
  "ließen": 2425,
  "lten": 2426,
  "Ziel": 2427,
  "lich@@": 2428,
  "umsonst": 2429,
  "ig@@": 2430,
  "Meilen": 2431,
  "Du": 2432,
  "Wel@@": 2433,
  "Vorstellung": 2434,
  "zte": 2435,
  "he@@": 2436,
  "ehen": 2437,
  "Wochen": 2438,
  "Sand@@": 2439,
  "ieren": 2440,
  "Religion": 2441,
  "bewusstlos": 2442,
  "tten": 2443,
  "Regal": 2444,
  "gedacht": 2445,
  "schwerer": 2446,
  "behandelt": 2447,
  "dre@@": 2448,
  "schwe@@": 2449,
  "lediglich": 2450,
  "hereinkommen": 2451,
  "wohnen": 2452,
  "Treppe": 2453,
  "Situation": 2454,
  "erkannte": 2455,
  "eilig": 2456,
  "disku@@": 2457,
  "Betty": 2458,
  "verkehrt": 2459,
  "müsse": 2460,
  "entscheiden": 2461,
  "Typ": 2462,
  "geliehen": 2463,
  "bel": 2464,
  "Drittel": 2465,
  "blu@@": 2466,
  "hi@@": 2467,
  "äch@@": 2468,
  "reise": 2469,
  "hasst": 2470,
  "Hal@@": 2471,
  "gelt": 2472,
  "Schreiben": 2473,
  "ausgegangen": 2474,
  "schä@@": 2475,
  "Glä@@": 2476,
  "tliche": 2477,
  "offen": 2478,
  "Beschreibung": 2479,
  "Die@@": 2480,
  "ens@@": 2481,
  "Pf@@": 2482,
  "ergibt": 2483,
  "Kra@@": 2484,
  "mmt": 2485,
  "vollständig": 2486,
  "gere@@": 2487,
  "Gedächtnis": 2488,
  "Häuser": 2489,
  "spiel": 2490,
  "Verhalten": 2491,
  "Sekunden": 2492,
  "tem": 2493,
  "durchgemacht": 2494,
  "hob": 2495,
  "bemerkte": 2496,
  "hinaus": 2497,
  "deten": 2498,
  ".@@": 2499,
  "Verstand": 2500,
  "Feind": 2501,
  "Mut": 2502,
  "Stock": 2503,
  "Ihrem": 2504,
  "bil@@": 2505,
  "Rose": 2506,
  "Kranken@@": 2507,
  "Bestes": 2508,
  "trau@@": 2509,
  "Na": 2510,
  "ches": 2511,
  "3": 2512,
  "unk@@": 2513,
  "Me@@": 2514,
  "Roman": 2515,
  "weiterhin": 2516,
  "mer@@": 2517,
  "richtet": 2518,
  "hierher@@": 2519,
  "wachsen": 2520,
  "Straßen@@": 2521,
  "erung": 2522,
  "folge": 2523,
  "Hand@@": 2524,
  "Par@@": 2525,
  "Schnee": 2526,
  "Handtasche": 2527,
  "Wunder": 2528,
  "ffe": 2529,
  "haltet": 2530,
  "schämen": 2531,
  "bestehen": 2532,
  "beschloss": 2533,
  "esen": 2534,
  "sieben": 2535,
  "Fotos": 2536,
  "absolut": 2537,
  "cks": 2538,
  "Schlaf@@": 2539,
  "Zoo": 2540,
  "morgens": 2541,
  "stau@@": 2542,
  "Republik": 2543,
  "hergestellt": 2544,
  "del": 2545,
  "hinter@@": 2546,
  "beinahe": 2547,
  "äl@@": 2548,
  "vorher": 2549,
  "gäbe": 2550,
  "bestanden": 2551,
  "Gesetz": 2552,
  "spa@@": 2553,
  "zusammen@@": 2554,
  "Pla@@": 2555,
  "Regens": 2556,
  "Apfel@@": 2557,
  "gerührt": 2558,
  "Wüste": 2559,
  "Übersetzung": 2560,
  "wohne": 2561,
  "vermi@@": 2562,
  "dick": 2563,
  "Honig": 2564,
  "redest": 2565,
  "Tante": 2566,
  "Blut": 2567,
  "iges": 2568,
  "inen": 2569,
  "fas@@": 2570,
  "interessieren": 2571,
  "spie@@": 2572,
  "Vergnügen": 2573,
  "Hauptstadt": 2574,
  "einiges": 2575,
  "man@@": 2576,
  "gilt": 2577,
  "Zeitpunkt": 2578,
  "versteckt": 2579,
  "gebacken": 2580,
  "Bett@@": 2581,
  "derung": 2582,
  "gewi@@": 2583,
  "Liisa": 2584,
  "bten": 2585,
  "Kopfschmerzen": 2586,
  "Fehlern": 2587,
  "Stra@@": 2588,
  "Höh@@": 2589,
  "Dichter": 2590,
  "Marie": 2591,
  "hlen": 2592,
  "Atmosphäre": 2593,
  "rosa": 2594,
  "Weile": 2595,
  "Städte": 2596,
  "etz@@": 2597,
  "wessen": 2598,
  "Sterne": 2599,
  "spielten": 2600,
  "Baby": 2601,
  "momentan": 2602,
  "Nach@@": 2603,
  "Volk": 2604,
  "gebissen": 2605,
  "Arbeiter": 2606,
  "öh@@": 2607,
  "stür@@": 2608,
  "lt": 2609,
  "dler": 2610,
  "zeigte": 2611,
  "mmen": 2612,
  "hl": 2613,
  "wieder@@": 2614,
  "mte": 2615,
  "lin@@": 2616,
  "Elefanten": 2617,
  "wür@@": 2618,
  "gehabt": 2619,
  "Finger": 2620,
  "50": 2621,
  "bekam": 2622,
  "gucken": 2623,
  "tigt": 2624,
  "tra@@": 2625,
  "Lehr@@": 2626,
  "einsam": 2627,
  "fi@@": 2628,
  "abgenommen": 2629,
  "Prinzessin": 2630,
  "hren": 2631,
  "ro@@": 2632,
  "offensichtlich": 2633,
  "Macht": 2634,
  "Ort": 2635,
  "trinkst": 2636,
  "Holz": 2637,
  "spielte": 2638,
  "Drogen": 2639,
  "ven": 2640,
  "reicher": 2641,
  "stieg": 2642,
  "Fremdsprache": 2643,
  "buch": 2644,
  "interessant": 2645,
  "nung": 2646,
  "sü@@": 2647,
  "stärker": 2648,
  "Brille": 2649,
  "wort": 2650,
  "aten": 2651,
  "flu@@": 2652,
  "zahlen": 2653,
  "Orangen": 2654,
  "führte": 2655,
  "lig": 2656,
  "Maschine": 2657,
  "Müll": 2658,
  "gelöst": 2659,
  "König@@": 2660,
  "chtes": 2661,
  "tischen": 2662,
  "zei@@": 2663,
  "Wieder@@": 2664,
  "Zucker": 2665,
  "Lüge": 2666,
  "Frühling": 2667,
  "ung@@": 2668,
  "Schritt": 2669,
  "Erlaubnis": 2670,
  "zunehmen": 2671,
  "Kinder@@": 2672,
  "zweifeln": 2673,
  "inne": 2674,
  "aufgehört": 2675,
  "antwortete": 2676,
  "Roh@@": 2677,
  "führ@@": 2678,
  "siert": 2679,
  "Bi@@": 2680,
  "Afrika": 2681,
  "Inter@@": 2682,
  "hinein": 2683,
  "irgendwelche": 2684,
  "aufre@@": 2685,
  "entweder": 2686,
  "Augen@@": 2687,
  "toll": 2688,
  "endgültige": 2689,
  "Geh@@": 2690,
  "Schl@@": 2691,
  "Di@@": 2692,
  "hilfreich": 2693,
  "verli@@": 2694,
  "Schottland": 2695,
  "Atem": 2696,
  "entfliehen": 2697,
  "zeige": 2698,
  "inn@@": 2699,
  "Ra@@": 2700,
  "überreden": 2701,
  "2.30": 2702,
  "träume": 2703,
  "teure": 2704,
  "Fern@@": 2705,
  "trock@@": 2706,
  "dürft": 2707,
  "schickte": 2708,
  "Wert": 2709,
  "lernst": 2710,
  "Cousin": 2711,
  "antun": 2712,
  "Gemahlin": 2713,
  "Stolz": 2714,
  "existiert": 2715,
  "Arbeits@@": 2716,
  "verbringst": 2717,
  "schwimme": 2718,
  "unterstützen": 2719,
  "Sa@@": 2720,
  "Besprechung": 2721,
  "zi@@": 2722,
  "bestürzt": 2723,
  "verändert": 2724,
  "Anspruch": 2725,
  "örper@@": 2726,
  "geschlafen": 2727,
  "einverstanden": 2728,
  "scherzt": 2729,
  "Unrecht": 2730,
  "wein@@": 2731,
  "Anteil": 2732,
  "gar@@": 2733,
  "misstrauisch": 2734,
  "Welt@@": 2735,
  "deshalb": 2736,
  "Schie@@": 2737,
  "Mann@@": 2738,
  "fünfzehn": 2739,
  "Reise@@": 2740,
  "vorher@@": 2741,
  "7": 2742,
  "unwahrscheinlich": 2743,
  "gewisser": 2744,
  "gestrichen": 2745,
  "Stern": 2746,
  "einzigen": 2747,
  "vergleichen": 2748,
  "zug": 2749,
  "Unterrich@@": 2750,
  "Ba@@": 2751,
  "Bilder": 2752,
  "schst": 2753,
  "echten": 2754,
  "vergrub": 2755,
  "gestritten": 2756,
  "erlitt": 2757,
  "ner@@": 2758,
  "sowohl": 2759,
  "angenommen": 2760,
  "Tr@@": 2761,
  "üch@@": 2762,
  "Parkstraße": 2763,
  "gelegt": 2764,
  "Vorstellungen": 2765,
  "ste@@": 2766,
  "seh@@": 2767,
  "meister": 2768,
  "Zeit@@": 2769,
  "liebst": 2770,
  "verlangte": 2771,
  "Satz@@": 2772,
  "feu@@": 2773,
  "bezüglich": 2774,
  "gelogen": 2775,
  "Kat@@": 2776,
  "kämpfen": 2777,
  "fän@@": 2778,
  "besseren": 2779,
  "ckst": 2780,
  "rechten": 2781,
  "10@@": 2782,
  "auszukommen": 2783,
  "frisch": 2784,
  "irgend@@": 2785,
  "üben": 2786,
  "Blick": 2787,
  "interessiere": 2788,
  "wiedersehen": 2789,
  "Exper@@": 2790,
  "drauf": 2791,
  "osen": 2792,
  "Gen@@": 2793,
  "ation": 2794,
  "Größe": 2795,
  "enen": 2796,
  "kaputt": 2797,
  "lachten": 2798,
  "anprobi@@": 2799,
  "Menschheit": 2800,
  "Spielzeug": 2801,
  "Kol@@": 2802,
  "Berichte": 2803,
  "dünne": 2804,
  "nachts": 2805,
  "verab@@": 2806,
  "neuer": 2807,
  "lächeln": 2808,
  "reinkommen": 2809,
  "nei@@": 2810,
  "Ball@@": 2811,
  "zugelegt": 2812,
  "zurecht": 2813,
  "Bushaltestelle": 2814,
  "Rennen": 2815,
  "ewig": 2816,
  "spart": 2817,
  "ständi@@": 2818,
  "innerhalb": 2819,
  "bewunder@@": 2820,
  "Sonnenbrille": 2821,
  "Ur@@": 2822,
  "Nu@@": 2823,
  "Pen@@": 2824,
  "Mars": 2825,
  "wechseln": 2826,
  "nü@@": 2827,
  "mel@@": 2828,
  "Ras@@": 2829,
  "schle@@": 2830,
  "our@@": 2831,
  "greifen": 2832,
  "ossen": 2833,
  "the@@": 2834,
  "einfacher": 2835,
  "klingelt": 2836,
  "unken": 2837,
  "größte": 2838,
  "ses": 2839,
  "Nachtisch": 2840,
  "gericht": 2841,
  "treten": 2842,
  "traum": 2843,
  "ment@@": 2844,
  "one": 2845,
  "schrie": 2846,
  "übersetzt": 2847,
  "durcheinander": 2848,
  "Fabrik": 2849,
  "Dre@@": 2850,
  "Methode": 2851,
  "Buch@@": 2852,
  "falsche": 2853,
  "Beruf": 2854,
  "vergnü@@": 2855,
  "täu@@": 2856,
  "fange": 2857,
  "strichen": 2858,
  "fürchten": 2859,
  "anti@@": 2860,
  "Weihnachtsmann": 2861,
  "Richter": 2862,
  "strei@@": 2863,
  "Pflanzen": 2864,
  "De@@": 2865,
  "richtigen": 2866,
  "Rolle": 2867,
  "Englischunterricht": 2868,
  "Verräter": 2869,
  "verraten": 2870,
  "begeben": 2871,
  "Gute": 2872,
  "schneien": 2873,
  "Ansicht": 2874,
  "Bleib": 2875,
  "einfl@@": 2876,
  "chene": 2877,
  "Zah@@": 2878,
  "Im@@": 2879,
  "sä@@": 2880,
  "Feier@@": 2881,
  "ginge": 2882,
  "sterbe": 2883,
  "Schweizer": 2884,
  "Min@@": 2885,
  "einfachen": 2886,
  "eingeschlafen": 2887,
  "hingegangen": 2888,
  "davon@@": 2889,
  "geflogen": 2890,
  "gs@@": 2891,
  "verabschiedet": 2892,
  "Französisch@@": 2893,
  "stunden": 2894,
  "Kultur": 2895,
  "angeboten": 2896,
  "Schokoladen@@": 2897,
  "deprimiert": 2898,
  "kuchen": 2899,
  "Schlaganfall": 2900,
  "Te@@": 2901,
  "terte": 2902,
  "ähn@@": 2903,
  "angen": 2904,
  "Tru@@": 2905,
  "liegen": 2906,
  "entspricht": 2907,
  "schlafend": 2908,
  "behaup@@": 2909,
  "mann@@": 2910,
  "Loch": 2911,
  "Rosen": 2912,
  "Bea@@": 2913,
  "Star@@": 2914,
  "darin": 2915,
  "nbar": 2916,
  "rug": 2917,
  "hinaus@@": 2918,
  "tren@@": 2919,
  "gewöhn@@": 2920,
  "Besonderes": 2921,
  "hn@@": 2922,
  "befolgen": 2923,
  "reg@@": 2924,
  "verbessert": 2925,
  "total": 2926,
  "ennen": 2927,
  "verspreche": 2928,
  "empfehlen": 2929,
  "herr@@": 2930,
  "Huhn": 2931,
  "getreten": 2932,
  "teilt": 2933,
  "Veranda": 2934,
  "mor@@": 2935,
  "Graben": 2936,
  "weggehen": 2937,
  "Privat@@": 2938,
  "Nichts": 2939,
  "ex@@": 2940,
  "verschwinden": 2941,
  "verstecken": 2942,
  "Wunsch": 2943,
  "armen": 2944,
  "richten": 2945,
  "Kleider": 2946,
  "geeignet": 2947,
  "Anwalt": 2948,
  "existieren": 2949,
  "krebs": 2950,
  "zerstör@@": 2951,
  "betra@@": 2952,
  "zubringen": 2953,
  "innen": 2954,
  "post": 2955,
  "liert": 2956,
  "Lügner": 2957,
  "gemalt": 2958,
  "Worten": 2959,
  "ausgestattet": 2960,
  "Meter": 2961,
  "wisse": 2962,
  "Leuten": 2963,
  "erungs@@": 2964,
  "gebaut": 2965,
  "Käse": 2966,
  "betreten": 2967,
  "pünktlich": 2968,
  "deu@@": 2969,
  "tend": 2970,
  "direkt": 2971,
  "por@@": 2972,
  "Latein": 2973,
  "gelangen": 2974,
  "klang": 2975,
  "w": 2976,
  "Reisen": 2977,
  "gegen@@": 2978,
  "grün": 2979,
  "achtzig": 2980,
  "vorbei@@": 2981,
  "ob@@": 2982,
  "Bel@@": 2983,
  "Blutgruppe": 2984,
  "Publikum": 2985,
  "bereitete": 2986,
  "größ@@": 2987,
  "hilf": 2988,
  "hä@@": 2989,
  "ausstehen": 2990,
  "sab@@": 2991,
  "Schuh@@": 2992,
  "zentrum": 2993,
  "Mama": 2994,
  "versprach": 2995,
  "ktion": 2996,
  "gezwungen": 2997,
  "jen@@": 2998,
  "erlaubt": 2999,
  "ert@@": 3000,
  "geplant": 3001,
  "Deutschen": 3002,
  "Koch@@": 3003,
  "teil@@": 3004,
  "zulaufen": 3005,
  "regelmäßig": 3006,
  "verbie@@": 3007,
  "Telefon@@": 3008,
  "Schri@@": 3009,
  "schläft": 3010,
  "Sahne": 3011,
  "Krach": 3012,
  "verbot": 3013,
  "Männern": 3014,
  "ele": 3015,
  "sicher@@": 3016,
  "zeu@@": 3017,
  "zustellen": 3018,
  "Rekor@@": 3019,
  "bö@@": 3020,
  "Schwi@@": 3021,
  "weiße": 3022,
  "erreichte": 3023,
  "bestätigen": 3024,
  "Marys": 3025,
  "cher@@": 3026,
  "nachmittags": 3027,
  "Schmerzen": 3028,
  "Kanadier": 3029,
  "Gehirn": 3030,
  "hohe": 3031,
  "Fakten": 3032,
  "musik": 3033,
  "Vorhaben": 3034,
  "Tisch@@": 3035,
  "emp@@": 3036,
  "heiße": 3037,
  "tungen": 3038,
  "Augenblick": 3039,
  "fin@@": 3040,
  "Keks": 3041,
  "Bedeutung": 3042,
  "tigung": 3043,
  "fra@@": 3044,
  "flich": 3045,
  "hil@@": 3046,
  "schlimm": 3047,
  "negativ": 3048,
  "dunkel": 3049,
  "verge@@": 3050,
  "schoss": 3051,
  "Pfund": 3052,
  "durstig": 3053,
  "Klassenzimmer": 3054,
  "Erscheinung": 3055,
  "Armbanduhr": 3056,
  "sitzen": 3057,
  "Sta@@": 3058,
  "unseres": 3059,
  "striche": 3060,
  "September": 3061,
  "reali@@": 3062,
  "Schokolade": 3063,
  "Sünde": 3064,
  "Politik": 3065,
  "Narr": 3066,
  "geschrien": 3067,
  "kunft": 3068,
  "füll@@": 3069,
  "völliger": 3070,
  "denselben": 3071,
  "Rom": 3072,
  "Benzin": 3073,
  "aufgeregt": 3074,
  "hofft": 3075,
  "Autofahren": 3076,
  "Schutz@@": 3077,
  "angef@@": 3078,
  "Sitzungszimmer": 3079,
  "aufzugeben": 3080,
  "Weiß": 3081,
  "gr@@": 3082,
  "gan@@": 3083,
  "begangen": 3084,
  "herausgefunden": 3085,
  "arri@@": 3086,
  "Gep@@": 3087,
  "stundenlang": 3088,
  "Halsschmerzen": 3089,
  "Mittel": 3090,
  "zuletzt": 3091,
  "Behalte": 3092,
  "Ober@@": 3093,
  "hinunter": 3094,
  "pe": 3095,
  "Se@@": 3096,
  "nd": 3097,
  "erschöpft": 3098,
  "trei@@": 3099,
  "digitale": 3100,
  "verlobt": 3101,
  "Man@@": 3102,
  "löschen": 3103,
  "Ju@@": 3104,
  "ßes": 3105,
  "ier": 3106,
  "Ohr": 3107,
  "Geschwister": 3108,
  "Selbstmord": 3109,
  "schönsten": 3110,
  "linken": 3111,
  "Tri@@": 3112,
  "nimmst": 3113,
  "lichkeit": 3114,
  "verdi@@": 3115,
  "wich@@": 3116,
  "Zugang": 3117,
  "Westen": 3118,
  "ig": 3119,
  "Sy@@": 3120,
  "Freitag": 3121,
  "Mond": 3122,
  "hinauf": 3123,
  "zweimal": 3124,
  "Hü@@": 3125,
  "entschuldigt": 3126,
  "zeug": 3127,
  "verdienen": 3128,
  "vorüber": 3129,
  "annehmen": 3130,
  "gut@@": 3131,
  "arab@@": 3132,
  "Salat": 3133,
  "cen": 3134,
  "grünen": 3135,
  "gelebt": 3136,
  "herunter": 3137,
  "Liste": 3138,
  "Kugelschreiber": 3139,
  "wandern": 3140,
  "Kunst@@": 3141,
  "geirrt": 3142,
  "Kontrolle": 3143,
  "ment": 3144,
  "regnet": 3145,
  "Gefangenen": 3146,
  "flo@@": 3147,
  "zen@@": 3148,
  "träumen": 3149,
  "rän@@": 3150,
  "näherte": 3151,
  "beeilen": 3152,
  "blau@@": 3153,
  "erwäh@@": 3154,
  "Chemie": 3155,
  "dient": 3156,
  "Wohnzimmer": 3157,
  "schrei@@": 3158,
  "Zufall": 3159,
  "Morde": 3160,
  "dasselbe": 3161,
  "entlassen": 3162,
  "schenken": 3163,
  "bislang": 3164,
  "flogen": 3165,
  "folgen": 3166,
  "ehmen": 3167,
  "Schafe": 3168,
  "Frem@@": 3169,
  "Zaun": 3170,
  "Motor@@": 3171,
  "hierherkommen": 3172,
  "verreist": 3173,
  "Eigen@@": 3174,
  "Hauses": 3175,
  "schung": 3176,
  "schlaf@@": 3177,
  "trocken": 3178,
  "gste": 3179,
  "verspäten": 3180,
  "Kuh": 3181,
  "Paul": 3182,
  "bloß": 3183,
  "Freiheit": 3184,
  "Mädels": 3185,
  "gutausseh@@": 3186,
  "ärgerlich": 3187,
  "imm@@": 3188,
  "Bri@@": 3189,
  "willkommen": 3190,
  "gelte": 3191,
  "uch": 3192,
  "Griechenland": 3193,
  "Grad": 3194,
  "ige": 3195,
  "Energie": 3196,
  "igkeit": 3197,
  "stu@@": 3198,
  "werke": 3199,
  "is": 3200,
  "Erste": 3201,
  "achte": 3202,
  "kündigen": 3203,
  "geparkt": 3204,
  "fühlst": 3205,
  "Dezember": 3206,
  "äten": 3207,
  "Akzent": 3208,
  "Hunder@@": 3209,
  "bend": 3210,
  "tion@@": 3211,
  "Suche": 3212,
  "Strom": 3213,
  "Pop@@": 3214,
  "gezogen": 3215,
  "betrifft": 3216,
  "Pech": 3217,
  "Geduld": 3218,
  "1@@": 3219,
  "af@@": 3220,
  "fragst": 3221,
  "Dr.": 3222,
  "USA": 3223,
  "pf@@": 3224,
  "Schicksal": 3225,
  "Gur@@": 3226,
  "füttert": 3227,
  "dreimal": 3228,
  "schi@@": 3229,
  "glückliche": 3230,
  "Zeitungen": 3231,
  "heftig": 3232,
  "ausgeraubt": 3233,
  "mitzuteilen": 3234,
  "interessanter": 3235,
  "Portemonnaie": 3236,
  "nein": 3237,
  "O": 3238,
  "Fil@@": 3239,
  "Regierung": 3240,
  "mo@@": 3241,
  "Arbeitsstelle": 3242,
  "Pommes": 3243,
  "ht": 3244,
  "Sport": 3245,
  "Gruppen": 3246,
  "Seele": 3247,
  "hierhin": 3248,
  "spro@@": 3249,
  "schwieriger": 3250,
  "lieb@@": 3251,
  "mitgeteilt": 3252,
  "get@@": 3253,
  "stik": 3254,
  "Meister": 3255,
  "fan@@": 3256,
  "Golf": 3257,
  "dumm": 3258,
  "unbeeindruckt": 3259,
  "eingelaufen": 3260,
  "London": 3261,
  "festgenommen": 3262,
  "Flasche": 3263,
  "inter@@": 3264,
  "wissenschaft@@": 3265,
  "ße": 3266,
  "verkauft": 3267,
  "wickelt": 3268,
  "art": 3269,
  "fingen": 3270,
  "Bibel": 3271,
  "grüß@@": 3272,
  "erin": 3273,
  "Com@@": 3274,
  "fte": 3275,
  "Verbrechen": 3276,
  "ergeben": 3277,
  "weigerte": 3278,
  "zulassen": 3279,
  "Sushi": 3280,
  "v@@": 3281,
  "Nieder@@": 3282,
  "Schluss": 3283,
  "hebe": 3284,
  "erzähle": 3285,
  "erkältet": 3286,
  "liegenlassen": 3287,
  "kor@@": 3288,
  "Handschu@@": 3289,
  "il@@": 3290,
  "begonnen": 3291,
  "spann@@": 3292,
  "Geburtstagsgeschenk": 3293,
  "Folgen": 3294,
  "vernünftig": 3295,
  "studi@@": 3296,
  "bs": 3297,
  "ma": 3298,
  "packte": 3299,
  "Stadion": 3300,
  "Präsidenten": 3301,
  "italien@@": 3302,
  "Samen": 3303,
  "wor@@": 3304,
  "lügst": 3305,
  "Freizeit": 3306,
  "woh@@": 3307,
  "wolltest": 3308,
  "tere": 3309,
  "Tra@@": 3310,
  "sten@@": 3311,
  "breit": 3312,
  "Meteor@@": 3313,
  "bot": 3314,
  "2013": 3315,
  "geld": 3316,
  "Rot": 3317,
  "Objekt": 3318,
  "Fach@@": 3319,
  "sel": 3320,
  "verblüfft": 3321,
  "kopf": 3322,
  "wider@@": 3323,
  "wurf": 3324,
  "interessantes": 3325,
  "fern@@": 3326,
  "Mahlzeiten": 3327,
  "halt@@": 3328,
  "Mos@@": 3329,
  "Manager": 3330,
  "kostbar": 3331,
  "zurückgekommen": 3332,
  "Kopf@@": 3333,
  "ann": 3334,
  "Bahn": 3335,
  "ehrt": 3336,
  "geträumt": 3337,
  "mehr@@": 3338,
  "Mi@@": 3339,
  "zeichnet": 3340,
  "ender": 3341,
  "letztlich": 3342,
  "flüsterte": 3343,
  "terie": 3344,
  "feiern": 3345,
  "verärgerte": 3346,
  "kel": 3347,
  "vorgestern": 3348,
  "Tōkyō": 3349,
  "gestattet": 3350,
  "schla@@": 3351,
  "entfer@@": 3352,
  "soweit": 3353,
  "angeklagt": 3354,
  "tatsächlich": 3355,
  "eb@@": 3356,
  "blä@@": 3357,
  "fest@@": 3358,
  "Mor@@": 3359,
  "dritten": 3360,
  "unterscheidet": 3361,
  "decke": 3362,
  "Strei@@": 3363,
  "empfinde": 3364,
  "berühmter": 3365,
  "Anne": 3366,
  "Regel": 3367,
  "enttäuschen": 3368,
  "dru@@": 3369,
  "Bitte": 3370,
  "möglich@@": 3371,
  "anziehen": 3372,
  "Sonntag": 3373,
  "spätestens": 3374,
  "Nä@@": 3375,
  "Meg": 3376,
  "verbrannt": 3377,
  "Ozean": 3378,
  "gutgehe": 3379,
  "urz@@": 3380,
  "höflich": 3381,
  "doppelt": 3382,
  "verlock@@": 3383,
  "ablehnen": 3384,
  "Mon@@": 3385,
  "starke": 3386,
  "dä@@": 3387,
  "verboten": 3388,
  "sol@@": 3389,
  "The@@": 3390,
  "Experiment": 3391,
  "schie@@": 3392,
  "leich@@": 3393,
  "erklärt": 3394,
  "sechzig": 3395,
  "Gutes": 3396,
  "befinde": 3397,
  "Samstag": 3398,
  "Schach@@": 3399,
  "gemein": 3400,
  "schen@@": 3401,
  "mes": 3402,
  "Blin@@": 3403,
  "öffent@@": 3404,
  "Buches": 3405,
  "mp@@": 3406,
  "traurig": 3407,
  "Patienten": 3408,
  "kümmerte": 3409,
  "zähle": 3410,
  "klagte": 3411,
  "anzunehmen": 3412,
  "Ken@@": 3413,
  "nis": 3414,
  "Gei@@": 3415,
  "Vorschlag": 3416,
  "Jim": 3417,
  "Termin": 3418,
  "Garage": 3419,
  "tende": 3420,
  "Kindheit": 3421,
  "ton@@": 3422,
  "außer@@": 3423,
  "angeblich": 3424,
  "Stoff": 3425,
  "Länder": 3426,
  "Fehl@@": 3427,
  "persönliche": 3428,
  "Sozi@@": 3429,
  "zerstört": 3430,
  "ille": 3431,
  "warteten": 3432,
  "100": 3433,
  "tungs@@": 3434,
  "Spei@@": 3435,
  "übrigens": 3436,
  "Möbel": 3437,
  "Ecke": 3438,
  "boot": 3439,
  "aufge@@": 3440,
  "wünscht": 3441,
  "Durst": 3442,
  "Kaiser": 3443,
  "benimmt": 3444,
  "tierten": 3445,
  "ar": 3446,
  "stoff": 3447,
  "Respekt": 3448,
  "kar@@": 3449,
  "undzwanzig": 3450,
  "putzen": 3451,
  "sorgt": 3452,
  "mar@@": 3453,
  "steckte": 3454,
  "Fei@@": 3455,
  "klingt": 3456,
  "voran": 3457,
  "sich@@": 3458,
  "Schne@@": 3459,
  "wol@@": 3460,
  "Gepäck": 3461,
  "Dummheit": 3462,
  "Gericht": 3463,
  "ellen": 3464,
  "rü@@": 3465,
  "genossen": 3466,
  "Ja": 3467,
  "Dürfte": 3468,
  "gele@@": 3469,
  "beschlossen": 3470,
  "euren": 3471,
  "Träume": 3472,
  "süße": 3473,
  "bleibst": 3474,
  "zuzu@@": 3475,
  "ause": 3476,
  "frühstücken": 3477,
  "gemerkt": 3478,
  "lose": 3479,
  "Schreib@@": 3480,
  "vierzig": 3481,
  "tausend": 3482,
  "Erinnerung": 3483,
  "bür@@": 3484,
  "stört": 3485,
  "E": 3486,
  "Mail": 3487,
  "cker@@": 3488,
  "scharf": 3489,
  "Astronaut": 3490,
  "bst@@": 3491,
  "Är@@": 3492,
  "versp@@": 3493,
  "reichte": 3494,
  "wunder@@": 3495,
  "benutze": 3496,
  "schnit@@": 3497,
  "Gewicht": 3498,
  "wen@@": 3499,
  "geregnet": 3500,
  "dungen": 3501,
  "far@@": 3502,
  "Feuer@@": 3503,
  "Wange": 3504,
  "liefen": 3505,
  "gren@@": 3506,
  "enti@@": 3507,
  "feld": 3508,
  "ort": 3509,
  "Klassen@@": 3510,
  "Nahrung": 3511,
  "Flugzeu@@": 3512,
  "nien": 3513,
  "Gerücht": 3514,
  "Wind": 3515,
  "fälle": 3516,
  "bewusst": 3517,
  "zumachen": 3518,
  "gewöhnt": 3519,
  "Kyoto": 3520,
  "überzeugen": 3521,
  "aufgeben": 3522,
  "Arztes": 3523,
  "Endes": 3524,
  "wenigstens": 3525,
  "artig": 3526,
  "gleich@@": 3527,
  "ren": 3528,
  "bemü@@": 3529,
  "Klassenkameraden": 3530,
  "gelangweilt": 3531,
  "Pistole": 3532,
  "Hei@@": 3533,
  "merken": 3534,
  "schönste": 3535,
  "hrer": 3536,
  "op@@": 3537,
  "verbergen": 3538,
  "sig": 3539,
  "Zuneigung": 3540,
  "ftigen": 3541,
  "frem@@": 3542,
  "halbe": 3543,
  "nungen": 3544,
  "Gewissen": 3545,
  "Verkauf": 3546,
  "gun@@": 3547,
  "ie@@": 3548,
  "erfolgreich": 3549,
  "Kno@@": 3550,
  "gewinnt": 3551,
  "bekommt": 3552,
  "jün@@": 3553,
  "Klein@@": 3554,
  "str@@": 3555,
  "Feld": 3556,
  "mon@@": 3557,
  "schulde": 3558,
  "beklagt": 3559,
  "stemmte": 3560,
  "neue@@": 3561,
  "Lippen": 3562,
  "wohnte": 3563,
  "Falle": 3564,
  "konnten": 3565,
  "verlorene": 3566,
  "Hochzeit": 3567,
  "abzuschicken": 3568,
  "verein": 3569,
  "Ori@@": 3570,
  "arten": 3571,
  "schalten": 3572,
  "ffen": 3573,
  "ügen": 3574,
  "Scherz": 3575,
  "15": 3576,
  "billiger": 3577,
  "betreuen": 3578,
  "rau@@": 3579,
  "nen@@": 3580,
  "Basketball": 3581,
  "verzweifelt": 3582,
  "gekannt": 3583,
  "mö@@": 3584,
  "zehnten": 3585,
  "absichtlich": 3586,
  "Pa@@": 3587,
  "üs@@": 3588,
  "links": 3589,
  "auswendig": 3590,
  "aufzustehen": 3591,
  "enttäuscht": 3592,
  "Ungeheuer": 3593,
  "verste@@": 3594,
  "wel@@": 3595,
  "trifft": 3596,
  "suchst": 3597,
  "zeichnen": 3598,
  "zig": 3599,
  "lohnt": 3600,
  "tische": 3601,
  "ho@@": 3602,
  "Fuß@@": 3603,
  "rede": 3604,
  "fotografieren": 3605,
  "Knie": 3606,
  "lei": 3607,
  "platz": 3608,
  "Skla@@": 3609,
  "Fuchs": 3610,
  "gewählt": 3611,
  "niedri@@": 3612,
  "wenige": 3613,
  "Geheim@@": 3614,
  "Palast": 3615,
  "präch@@": 3616,
  "seitdem": 3617,
  "verbrachte": 3618,
  "Lau@@": 3619,
  "schrift": 3620,
  "Eintrittskarte": 3621,
  "tiere": 3622,
  "issen": 3623,
  "weitere": 3624,
  "00": 3625,
  "hof": 3626,
  "lebst": 3627,
  "Flug": 3628,
  "ass": 3629,
  "äh@@": 3630,
  "ktiv": 3631,
  "benötigen": 3632,
  "daraus": 3633,
  "mitgebracht": 3634,
  "krieg": 3635,
  "del@@": 3636,
  "ele@@": 3637,
  "Dunkelheit": 3638,
  "chtete": 3639,
  "Teich": 3640,
  "aufstehen": 3641,
  "Netz": 3642,
  "setzten": 3643,
  "Mauer": 3644,
  "aufgestanden": 3645,
  "fal@@": 3646,
  "spiel@@": 3647,
  "Lit@@": 3648,
  "vorgestellt": 3649,
  "Schwein": 3650,
  "sonderlich": 3651,
  "reagi@@": 3652,
  "fertig@@": 3653,
  "sogar": 3654,
  "bro@@": 3655,
  "Gegend": 3656,
  "Schrei": 3657,
  "beschäftigen": 3658,
  "Sei@@": 3659,
  "Farben": 3660,
  "dere": 3661,
  "Ak@@": 3662,
  "as@@": 3663,
  "rein": 3664,
  "führer": 3665,
  "gangen": 3666,
  "Mode": 3667,
  "kt@@": 3668,
  "umzu@@": 3669,
  "ierte": 3670,
  "Verbindung": 3671,
  "bun@@": 3672,
  "Versammlung": 3673,
  "Tie@@": 3674,
  "Französischen": 3675,
  "behauptet": 3676,
  "hunder@@": 3677,
  "En@@": 3678,
  "Gruppe": 3679,
  "Beispiel": 3680,
  "Gäste": 3681,
  "Chef": 3682,
  "Ewigkeit": 3683,
  "kosten": 3684,
  "erfüllt": 3685,
  "Wolken": 3686,
  "geschnitten": 3687,
  "zurückkommen": 3688,
  "ändert": 3689,
  "zahlt": 3690,
  "Lärm": 3691,
  "Facebook": 3692,
  "Schwert": 3693,
  "Geldbeutel": 3694,
  "plan": 3695,
  "droht": 3696,
  "erlaubte": 3697,
  "ras@@": 3698,
  "instinktiv": 3699,
  "üblicherweise": 3700,
  "widerrech@@": 3701,
  "Mehl": 3702,
  "worum": 3703,
  "Zeig": 3704,
  "Bürgerkrieg": 3705,
  "kasten": 3706,
  "Jagdschein": 3707,
  "Dop@@": 3708,
  "Zahlen": 3709,
  "Café": 3710,
  "mithalten": 3711,
  "Heimweh": 3712,
  "Schließ@@": 3713,
  "Kendō": 3714,
  "Kampfkunst": 3715,
  "schwer@@": 3716,
  "existi@@": 3717,
  "aphi@@": 3718,
  "Stückchen": 3719,
  "träumt": 3720,
  "lächerlich": 3721,
  "eingeschlossen": 3722,
  "sinnlos": 3723,
  "schine": 3724,
  "stungen": 3725,
  "Fahrstuhl": 3726,
  "Schlafzimmer": 3727,
  "fristig": 3728,
  "netter": 3729,
  "stattfinden": 3730,
  "Hummer": 3731,
  "stlicher": 3732,
  "wiesen": 3733,
  "ant": 3734,
  "gabe": 3735,
  "tätest": 3736,
  "fünfundvierzig": 3737,
  "verfüg@@": 3738,
  "Osaka": 3739,
  "nete": 3740,
  "Schä@@": 3741,
  "strahlung": 3742,
  "bens": 3743,
  "Januar": 3744,
  "Gebrauchtwagen": 3745,
  "schul@@": 3746,
  "dbe@@": 3747,
  "verschwi@@": 3748,
  "drän@@": 3749,
  "auen": 3750,
  "schließt": 3751,
  "fr@@": 3752,
  "Natur": 3753,
  "Rab@@": 3754,
  "Sicherheit": 3755,
  "ernsthaft": 3756,
  "Elektrizität": 3757,
  "Würdet": 3758,
  "deines": 3759,
  "jedermann": 3760,
  "backen": 3761,
  "Ro@@": 3762,
  "Politi@@": 3763,
  "bricht": 3764,
  "macher": 3765,
  "Lieder@@": 3766,
  "Alarm": 3767,
  "Geb@@": 3768,
  "Dien@@": 3769,
  "monatliche": 3770,
  "wus@@": 3771,
  "friedlich": 3772,
  "überraschend": 3773,
  "Pferde": 3774,
  "Bekann@@": 3775,
  "wichtig@@": 3776,
  "abzuholen": 3777,
  "leichtes": 3778,
  "künstler@@": 3779,
  "erhielt": 3780,
  "Spezialität": 3781,
  "ssen": 3782,
  "gela@@": 3783,
  "Gebrauch": 3784,
  "schaue": 3785,
  "Russisch": 3786,
  "zig@@": 3787,
  "unt": 3788,
  "bezaubernd": 3789,
  "kennenlernen": 3790,
  "veröffentlich@@": 3791,
  "Berggipfel": 3792,
  "ckten": 3793,
  "langem": 3794,
  "stürzen": 3795,
  "Indien": 3796,
  "schuldete": 3797,
  "willkürlich": 3798,
  "Beh@@": 3799,
  "Vase": 3800,
  "scheibe": 3801,
  "Posten": 3802,
  "höchste": 3803,
  "ket@@": 3804,
  "wartest": 3805,
  "elen": 3806,
  "ble@@": 3807,
  "Lang@@": 3808,
  "CD": 3809,
  "tischer": 3810,
  "bri@@": 3811,
  "Risiko": 3812,
  "verlauten": 3813,
  "Boden@@": 3814,
  "v": 3815,
  "Offizier": 3816,
  "leise": 3817,
  "rea@@": 3818,
  "beschwi@@": 3819,
  "komisch": 3820,
  "informierte": 3821,
  "Misserfolg": 3822,
  "tschen": 3823,
  "Glücks@@": 3824,
  "Kosten": 3825,
  "Schlimmes": 3826,
  "Medizin": 3827,
  "pin@@": 3828,
  "raten": 3829,
  "März": 3830,
  "Entdeckung": 3831,
  "Handschrift": 3832,
  "führe": 3833,
  "mme": 3834,
  "Aufenth@@": 3835,
  "Frühjahr": 3836,
  "verk@@": 3837,
  "stritten": 3838,
  "ündet": 3839,
  "grau": 3840,
  "Schraube": 3841,
  "Tüte": 3842,
  "ckiert": 3843,
  "satz@@": 3844,
  "nickte": 3845,
  "frohe": 3846,
  "Schu@@": 3847,
  "Last": 3848,
  "Blutdruck": 3849,
  "normal": 3850,
  "kurze": 3851,
  "ratzt": 3852,
  "kämen": 3853,
  "sieb@@": 3854,
  "Rah@@": 3855,
  "abgesch@@": 3856,
  "Geschenke": 3857,
  "kleinste": 3858,
  "Terr@@": 3859,
  "beten": 3860,
  "Pu@@": 3861,
  "land@@": 3862,
  "ppel": 3863,
  "berühren": 3864,
  "Arbeitssuche": 3865,
  "Paket": 3866,
  "Theorie": 3867,
  "wissenschaftliche": 3868,
  "Weihnachtsbaum": 3869,
  "rechnet": 3870,
  "hastig": 3871,
  "drückte": 3872,
  "versich@@": 3873,
  "000": 3874,
  "Taro": 3875,
  "Schutz": 3876,
  "Gas@@": 3877,
  "Science": 3878,
  "sech@@": 3879,
  "Teile": 3880,
  "Nerven": 3881,
  "Fiction": 3882,
  "Deckel": 3883,
  "inhaftiert": 3884,
  "Brechstange": 3885,
  "persönlich": 3886,
  "Kanntest": 3887,
  "niedriger": 3888,
  "Ford": 3889,
  "Spor@@": 3890,
  "wiederholt": 3891,
  "Röntgen@@": 3892,
  "dienst": 3893,
  "zahlte": 3894,
  "Ferien": 3895,
  "chan@@": 3896,
  "exik@@": 3897,
  "ent": 3898,
  "Blume": 3899,
  "Än@@": 3900,
  "folgende": 3901,
  "Krebs": 3902,
  "unheil@@": 3903,
  "bogen": 3904,
  "anische": 3905,
  "Schuhen": 3906,
  "Botschaft": 3907,
  "Mün@@": 3908,
  "Bewegung": 3909,
  "meiste": 3910,
  "belanglos": 3911,
  "geeig@@": 3912,
  "tsten": 3913,
  "Res@@": 3914,
  "gezeichnet": 3915,
  "Organisation": 3916,
  "geheimhalten": 3917,
  "bek@@": 3918,
  "schützen": 3919,
  "under@@": 3920,
  "anständi@@": 3921,
  "U": 3922,
  "nennt": 3923,
  "Reihe": 3924,
  "prima": 3925,
  "Großbritannien": 3926,
  "ebenso": 3927,
  "fizieren": 3928,
  "Kommiliton@@": 3929,
  "tzung": 3930,
  "To@@": 3931,
  "strich": 3932,
  "soren": 3933,
  "teilnehmen": 3934,
  "sg@@": 3935,
  "Frie@@": 3936,
  "Bas@@": 3937,
  "gestand": 3938,
  "beglei@@": 3939,
  "gebraucht": 3940,
  "Hektar": 3941,
  "ech@@": 3942,
  "Fahrrä@@": 3943,
  "Zweifel@@": 3944,
  "tief@@": 3945,
  "stimm@@": 3946,
  "ys": 3947,
  "gling": 3948,
  "verwehrte": 3949,
  "beschaffen": 3950,
  "Spielsachen": 3951,
  "Urlau@@": 3952,
  "schö@@": 3953,
  "Kürze": 3954,
  "Österreich": 3955,
  "gesperrt": 3956,
  "spuren": 3957,
  "bewahren": 3958,
  "erkläre": 3959,
  "mangelt": 3960,
  "beantwortete": 3961,
  "Mitternacht": 3962,
  "Sommerferien": 3963,
  "bestimmte": 3964,
  "allergie": 3965,
  "grausam": 3966,
  "stag": 3967,
  "klassische": 3968,
  "Ehrlichkeit": 3969,
  "Schulden": 3970,
  "schme@@": 3971,
  "heiten": 3972,
  "ausdrücken": 3973,
  "Brem@@": 3974,
  "ausgesetzt": 3975,
  "abhalten": 3976,
  "Eben@@": 3977,
  "Rö@@": 3978,
  "irren": 3979,
  "unddreißig": 3980,
  "Tal": 3981,
  "vergangenen": 3982,
  "Kinderspiel": 3983,
  "grüßen": 3984,
  "wald": 3985,
  "derlei": 3986,
  "tropi@@": 3987,
  "rutsch@@": 3988,
  "Narren": 3989,
  "deinetwegen": 3990,
  "Wohl": 3991,
  "za@@": 3992,
  "Lin@@": 3993,
  "würdi@@": 3994,
  "Kollegen": 3995,
  "merk@@": 3996,
  "erholt": 3997,
  "Scheidung": 3998,
  "Rachel": 3999,
  "Jahre@@": 4000,
  "Amerikanerin": 4001,
  "brennen": 4002,
  "Selbstgespräche": 4003,
  "Dra@@": 4004,
  "dene": 4005,
  "streifen": 4006,
  "Natürlich": 4007,
  "Selbstwertgefühl": 4008,
  "entzünden": 4009,
  "Joh@@": 4010,
  "getragen": 4011,
  "Ker@@": 4012,
  "ast@@": 4013,
  "zwan@@": 4014,
  "Wolke": 4015,
  "Neuigkeiten": 4016,
  "seite": 4017,
  "eit": 4018,
  "Note": 4019,
  "Rez@@": 4020,
  "kni@@": 4021,
  "verwirrt": 4022,
  "vieler": 4023,
  "Einspruch": 4024,
  "Gitar@@": 4025,
  "ren@@": 4026,
  "wach@@": 4027,
  "erzeugt": 4028,
  "Internet": 4029,
  "kontrolliert": 4030,
  "vers@@": 4031,
  "Zit@@": 4032,
  "blö@@": 4033,
  "Statue": 4034,
  "Web@@": 4035,
  "Mahl": 4036,
  "Zwin@@": 4037,
  "gemietet": 4038,
  "atsch": 4039,
  "Bedienung": 4040,
  "tie@@": 4041,
  "lern": 4042,
  "alkohol@@": 4043,
  "erneut": 4044,
  "Arbeiten": 4045,
  "oh@@": 4046,
  "mehreren": 4047,
  "Verspätung": 4048,
  "geleistet": 4049,
  "beschäfti@@": 4050,
  "leiben": 4051,
  "Wolle": 4052,
  "schwimmt": 4053,
  "kämmen": 4054,
  "gerei@@": 4055,
  "enträger": 4056,
  "eingelassen": 4057,
  "teile": 4058,
  "Nation@@": 4059,
  "unabhängiges": 4060,
  "stieß": 4061,
  "Wartezimmer": 4062,
  "Scheck": 4063,
  "wärst": 4064,
  "ohn": 4065,
  "erhält": 4066,
  "liege": 4067,
  "Zigarette": 4068,
  "Fenster@@": 4069,
  "Brown": 4070,
  "ane": 4071,
  "sätzen": 4072,
  "lichem": 4073,
  "mutter": 4074,
  "zusetzen": 4075,
  "Ton": 4076,
  "Stress": 4077,
  "drin@@": 4078,
  "ed": 4079,
  "Zunge": 4080,
  "aufzuhalten": 4081,
  "hell": 4082,
  "annte": 4083,
  "Ehr@@": 4084,
  "Ku@@": 4085,
  "hnte": 4086,
  "Sor@@": 4087,
  "Gegen@@": 4088,
  "leide": 4089,
  "Schnurrbart": 4090,
  "klopfte": 4091,
  "las@@": 4092,
  "plau@@": 4093,
  "schnarchen": 4094,
  "Genie": 4095,
  "Betra@@": 4096,
  "holte": 4097,
  "oll@@": 4098,
  "geschei@@": 4099,
  "als@@": 4100,
  "ke@@": 4101,
  "Kekse": 4102,
  "betrachtete": 4103,
  "Bra@@": 4104,
  "verschwenden": 4105,
  "zeichen": 4106,
  "Tür@@": 4107,
  "gegossen": 4108,
  "rieben": 4109,
  "Dro@@": 4110,
  "nst": 4111,
  "Rache": 4112,
  "schmu@@": 4113,
  "zogener": 4114,
  "Ausländer": 4115,
  "ichten": 4116,
  "beraten": 4117,
  "dahinter@@": 4118,
  "schön@@": 4119,
  "neugierig": 4120,
  "konzentrieren": 4121,
  "Bücherei": 4122,
  "Bedingungen": 4123,
  "überall": 4124,
  "Europas": 4125,
  "Schieben": 4126,
  "Voraus": 4127,
  "bestra@@": 4128,
  "Klei@@": 4129,
  "Achtung": 4130,
  "streut": 4131,
  "anstelle": 4132,
  "häufi@@": 4133,
  "Zustand": 4134,
  "Zufalls@@": 4135,
  "Sprung": 4136,
  "Platte": 4137,
  "wissen@@": 4138,
  "gemeldet": 4139,
  "talentiert": 4140,
  "Bir@@": 4141,
  "Hitze": 4142,
  "Lie@@": 4143,
  "Sternzeichen": 4144,
  "überfüllt": 4145,
  "bereue": 4146,
  "stalten": 4147,
  "auswärts": 4148,
  "erfreuen": 4149,
  "welt@@": 4150,
  "aufnehmen": 4151,
  "linge": 4152,
  "Hä@@": 4153,
  "chtet": 4154,
  "mas@@": 4155,
  "antwortest": 4156,
  "für@@": 4157,
  "btheit": 4158,
  "motiviert": 4159,
  "uner@@": 4160,
  "ate": 4161,
  "Tom@@": 4162,
  "Sturm": 4163,
  "bes@@": 4164,
  "Strafe": 4165,
  "alkoholische": 4166,
  "eile": 4167,
  "Ther@@": 4168,
  "usk@@": 4169,
  "ünden": 4170,
  "Süden": 4171,
  "nachgedacht": 4172,
  "Korrektur": 4173,
  "Hubschrauber": 4174,
  "gehängt": 4175,
  "Mitteilung": 4176,
  "gest@@": 4177,
  "sonder@@": 4178,
  "entlich": 4179,
  "Tiger": 4180,
  "Juli": 4181,
  "Sonnensystems": 4182,
  "Wale": 4183,
  "bewa@@": 4184,
  "ills": 4185,
  "son@@": 4186,
  "Bücher@@": 4187,
  "angezogen": 4188,
  "Wie@@": 4189,
  "reu@@": 4190,
  "Gegenteil": 4191,
  "brot": 4192,
  "Jesus": 4193,
  "gkeit": 4194,
  "jähri@@": 4195,
  "brav": 4196,
  "dig@@": 4197,
  "Wäsche": 4198,
  "Beweis": 4199,
  "verstorbenen": 4200,
  "hinwegkommen": 4201,
  "Schritte": 4202,
  "Erzähl": 4203,
  "Zusammen@@": 4204,
  "Dauerlauf": 4205,
  "ßnahmen": 4206,
  "bewe@@": 4207,
  "Kri@@": 4208,
  "süß": 4209,
  "greift": 4210,
  "Pil@@": 4211,
  "Abendzeitung": 4212,
  "passte": 4213,
  "Celsius": 4214,
  "überfallen": 4215,
  "verz@@": 4216,
  "Hin@@": 4217,
  "mms": 4218,
  "Nachrichten": 4219,
  "besoffen": 4220,
  "Analyse": 4221,
  "stumpfsinni@@": 4222,
  "Planeten": 4223,
  "zogen": 4224,
  "60": 4225,
  "acke": 4226,
  "otel@@": 4227,
  "Tre@@": 4228,
  "steckt": 4229,
  "enthalten": 4230,
  "träumte": 4231,
  "irrst": 4232,
  "hineinge@@": 4233,
  "inier@@": 4234,
  "sion": 4235,
  "bucht": 4236,
  "herauskommt": 4237,
  "Packen": 4238,
  "genü@@": 4239,
  "bohren": 4240,
  "milie": 4241,
  "Dänemark": 4242,
  "wickelte": 4243,
  "Ausdrücke": 4244,
  "Bli@@": 4245,
  "Russen": 4246,
  "billi@@": 4247,
  "lärmen@@": 4248,
  "keits@@": 4249,
  "Trinken": 4250,
  "kä@@": 4251,
  "loses": 4252,
  "Durcheinander": 4253,
  "Kühlschrank": 4254,
  "verschwiegen": 4255,
  "toll@@": 4256,
  "rup@@": 4257,
  "Sanitä@@": 4258,
  "gei@@": 4259,
  "äht": 4260,
  "Einladung": 4261,
  "derungen": 4262,
  "Decke": 4263,
  "einkaufen": 4264,
  "Bewusstsein": 4265,
  "deutschen": 4266,
  "hübscher": 4267,
  "rasch": 4268,
  "Lautstärke": 4269,
  "jüngste": 4270,
  "frische": 4271,
  "aut": 4272,
  "Touristenziele": 4273,
  "oms": 4274,
  "überprü@@": 4275,
  "Prom@@": 4276,
  "Sauerstoff": 4277,
  "äufer": 4278,
  "Getränk": 4279,
  "Rettungswagen": 4280,
  "bauen": 4281,
  "hau@@": 4282,
  "schlich@@": 4283,
  "Spanien": 4284,
  "Picasso": 4285,
  "Schwarm": 4286,
  "Widerspruch": 4287,
  "ings": 4288,
  "füreinander": 4289,
  "wort@@": 4290,
  "Fernseh@@": 4291,
  "Diesmal": 4292,
  "geriet": 4293,
  "öch@@": 4294,
  "Freundlichkeit": 4295,
  "nutzte": 4296,
  "Archäologie": 4297,
  "Eimer": 4298,
  "abwarten": 4299,
  "gefrühstückt": 4300,
  "wöchentlich": 4301,
  "sichtig": 4302,
  "Tex@@": 4303,
  "phan@@": 4304,
  "gelb": 4305,
  "freiwillig": 4306,
  "arbeitung@@": 4307,
  "Kolosseum": 4308,
  "geschäftlich": 4309,
  "vermei@@": 4310,
  "sprochen": 4311,
  "lug@@": 4312,
  "beliebtesten": 4313,
  "geschwindigkeit": 4314,
  "begraben": 4315,
  "iger": 4316,
  "Zauberin": 4317,
  "Ein": 4318,
  "mitten": 4319,
  "Wet@@": 4320,
  "acht@@": 4321,
  "aussuchen": 4322,
  "off@@": 4323,
  "Quelle": 4324,
  "Einkommen": 4325,
  "Abendessens": 4326,
  "Tassen": 4327,
  "aum": 4328,
  "Zubereitung": 4329,
  "Bäumen": 4330,
  "C": 4331,
  "hinzu": 4332,
  "Sie@@": 4333,
  "Besen": 4334,
  "pe@@": 4335,
  "film": 4336,
  "Die": 4337,
  "Sin@@": 4338,
  "Trom@@": 4339,
  "Herzog": 4340,
  "Fla@@": 4341,
  "beliebi@@": 4342,
  "Jahr@@": 4343,
  "ang": 4344,
  "fänden": 4345,
  "detailli@@": 4346,
  "einziger": 4347,
  "skeptisch": 4348,
  "Er": 4349,
  "fuß@@": 4350,
  "Ost@@": 4351,
  "rennt": 4352,
  "ßer": 4353,
  "mitteilen": 4354,
  "entdeckt": 4355,
  "verbr@@": 4356,
  "Nüssen": 4357,
  "einst": 4358,
  "bst": 4359,
  "belie@@": 4360,
  "knapp": 4361,
  "stiegen": 4362,
  "Klima@@": 4363,
  "eilen": 4364,
  "Diaman@@": 4365,
  "wandel": 4366,
  "Diagnose": 4367,
  "ttern": 4368,
  "att": 4369,
  "Erdbeeren": 4370,
  "Meeres@@": 4371,
  "Gefangene": 4372,
  "urist": 4373,
  "ichte": 4374,
  "Besitz": 4375,
  "bess@@": 4376,
  "kenntnisse": 4377,
  "Prin@@": 4378,
  "Computer@@": 4379,
  "Blatt": 4380,
  "voraus@@": 4381,
  "brennt": 4382,
  "woran": 4383,
  "todernst": 4384,
  "Beispiel@@": 4385,
  "Abreise": 4386,
  "enes": 4387,
  "Videokamera": 4388,
  "liebste": 4389,
  "Tro@@": 4390,
  "Würmer": 4391,
  "vernün@@": 4392,
  "vermu@@": 4393,
  "Schmetter@@": 4394,
  "dauerte": 4395,
  "Su@@": 4396,
  "ziellen": 4397,
  "Russland": 4398,
  "Zeiten": 4399,
  "tig@@": 4400,
  "betrachtet": 4401,
  "großar@@": 4402,
  "Tau@@": 4403,
  "Stück": 4404,
  "tro@@": 4405,
  "Arm": 4406,
  "lien": 4407,
  "Kop@@": 4408,
  "Universums": 4409,
  "Lehre": 4410,
  "aufzupassen": 4411,
  "Bekanntschaft": 4412,
  "riecht": 4413,
  "Skifahren": 4414,
  "herging": 4415,
  "schein": 4416,
  "geschaffen": 4417,
  "heira@@": 4418,
  "ahnte": 4419,
  "Rebellen": 4420,
  "gro@@": 4421,
  "freien": 4422,
  "härter": 4423,
  "wider": 4424,
  "jubelte": 4425,
  "schlimm@@": 4426,
  "beneide": 4427,
  "Polizisten": 4428,
  "gleichfalls": 4429,
  "getanzt": 4430,
  "verändern": 4431,
  "Mü@@": 4432,
  "schlugen": 4433,
  "widerstehen": 4434,
  "Uniformen": 4435,
  "Versuchung": 4436,
  "eiß": 4437,
  "Fahrt": 4438,
  "letz@@": 4439,
  "bru@@": 4440,
  "schief": 4441,
  "schiefgehen": 4442,
  "täglich@@": 4443,
  "Geschichten": 4444,
  "res@@": 4445,
  "ausgesucht": 4446,
  "ord@@": 4447,
  "gangs@@": 4448,
  "wes@@": 4449,
  "kälter": 4450,
  "Absichten": 4451,
  "lle": 4452,
  "setz@@": 4453,
  "fangs@@": 4454,
  "Außen@@": 4455,
  "deutscher": 4456,
  "besagt": 4457,
  "treu": 4458,
  "willi@@": 4459,
  "mitbringen": 4460,
  "Hammer": 4461,
  "Interesse": 4462,
  "otte": 4463,
  "schnitt": 4464,
  "vermutlich": 4465,
  "Zuhause": 4466,
  "nahezu": 4467,
  "senken": 4468,
  "fortzu@@": 4469,
  "unmittelbar": 4470,
  "Personen": 4471,
  "lache": 4472,
  "ien": 4473,
  "bleich": 4474,
  "Schall@@": 4475,
  "losigkeit": 4476,
  "Motorrad": 4477,
  "bern": 4478,
  "sil@@": 4479,
  "bung": 4480,
  "Kälte": 4481,
  "Blei": 4482,
  "treibt": 4483,
  "hervorragende": 4484,
  "gemein@@": 4485,
  "melzen": 4486,
  "Tar@@": 4487,
  "raff@@": 4488,
  "Mot@@": 4489,
  "ansehen": 4490,
  "Verfügung": 4491,
  "bedeckt": 4492,
  "Staub": 4493,
  "lauter": 4494,
  "Alters": 4495,
  "mittleren": 4496,
  "Ernst": 4497,
  "verständlich": 4498,
  "Komplizen": 4499,
  "Geheimnisse": 4500,
  "freuten": 4501,
  "Verzeihen": 4502,
  "hoff@@": 4503,
  "dritte": 4504,
  "Aber@@": 4505,
  "Tier@@": 4506,
  "Partie": 4507,
  "schwa@@": 4508,
  "Schuss@@": 4509,
  "erfunden": 4510,
  "Proletari@@": 4511,
  "Programm": 4512,
  "raucht": 4513,
  "Artus": 4514,
  "sslich": 4515,
  "Whisky": 4516,
  "geordnete": 4517,
  "dienst@@": 4518,
  "Öffentlichkeit": 4519,
  "tin": 4520,
  "mmte": 4521,
  "akzeptabel": 4522,
  "Jeans": 4523,
  "Bevorzu@@": 4524,
  "unkt": 4525,
  "Emp@@": 4526,
  "ießen": 4527,
  "Situationen": 4528,
  "Plan@@": 4529,
  "menschliche": 4530,
  "Axt": 4531,
  "benachrichtigen": 4532,
  "desto": 4533,
  "früheren": 4534,
  "höher": 4535,
  "verhei@@": 4536,
  "merkte": 4537,
  "sang": 4538,
  "prak@@": 4539,
  "Sängerin": 4540,
  "veränderte": 4541,
  "komple@@": 4542,
  "begegnet": 4543,
  "eröffnet": 4544,
  "Null": 4545,
  "fti@@": 4546,
  "Pri@@": 4547,
  "Jüngste": 4548,
  "Zwei@@": 4549,
  "fürchterlich": 4550,
  "schliefen": 4551,
  "Hüh@@": 4552,
  "diesel@@": 4553,
  "samkeit": 4554,
  "atur": 4555,
  "wärmer": 4556,
  "feier": 4557,
  "schuss": 4558,
  "erwähnen": 4559,
  "tive": 4560,
  "schäme": 4561,
  "ek@@": 4562,
  "Fass": 4563,
  "App@@": 4564,
  "ernden": 4565,
  "els": 4566,
  "Wur@@": 4567,
  "Aufnahme": 4568,
  "Poker": 4569,
  "dür@@": 4570,
  "respekt@@": 4571,
  "wette": 4572,
  "unnö@@": 4573,
  "Menschenmenge": 4574,
  "baut": 4575,
  "versammelt": 4576,
  "verbrachten": 4577,
  "spre@@": 4578,
  "gestür@@": 4579,
  "Intoleranz": 4580,
  "anhatte": 4581,
  "äume": 4582,
  "seltsa@@": 4583,
  "gra@@": 4584,
  "Nachhauseweg": 4585,
  "Lieder": 4586,
  "Tanz@@": 4587,
  "Taten": 4588,
  "hiermit": 4589,
  "Döner": 4590,
  "2011": 4591,
  "Unwort": 4592,
  "Monster": 4593,
  "Kilo": 4594,
  "wiegt": 4595,
  "Dokum@@": 4596,
  "Lan@@": 4597,
  "Schlittschuh": 4598,
  "pack@@": 4599,
  "währen": 4600,
  "Jong": 4601,
  "singt": 4602,
  "Perücke": 4603,
  "rätst": 4604,
  "hintun": 4605,
  "Kö@@": 4606,
  "schlä@@": 4607,
  "eben@@": 4608,
  "zurückkomme": 4609,
  "Rathaus": 4610,
  "stration": 4611,
  "abholen": 4612,
  "Schnees": 4613,
  "Orte": 4614,
  "europä@@": 4615,
  "herde": 4616,
  "digital": 4617,
  "Einfluss": 4618,
  "för@@": 4619,
  "pflügt": 4620,
  "rte": 4621,
  "Jackson": 4622,
  "erleich@@": 4623,
  "Uni@@": 4624,
  "publi@@": 4625,
  "Brauch": 4626,
  "umhin": 4627,
  "Autounfall": 4628,
  "verkra@@": 4629,
  "bleibe": 4630,
  "eiskalt": 4631,
  "übe": 4632,
  "Faulpelz": 4633,
  "pflegt": 4634,
  "seltsam": 4635,
  "fst": 4636,
  "Mathematiker": 4637,
  "Turnhalle": 4638,
  "besitzen": 4639,
  "kurzem": 4640,
  "nieder": 4641,
  "Merk@@": 4642,
  "ahl@@": 4643,
  "ankamen": 4644,
  "Enttäusch": 4645,
  "Wesen": 4646,
  "erzogen": 4647,
  "Pas@@": 4648,
  "kommuni@@": 4649,
  "icke": 4650,
  "bezah@@": 4651,
  "Leib@@": 4652,
  "englische": 4653,
  "Delphine": 4654,
  "deutlich": 4655,
  "Mehr@@": 4656,
  "gewann": 4657,
  "adop@@": 4658,
  "geschmissen": 4659,
  "gner": 4660,
  "tolerant": 4661,
  "Klo@@": 4662,
  "Mu@@": 4663,
  "viert": 4664,
  "reno@@": 4665,
  "Mais@@": 4666,
  "automa@@": 4667,
  "bli@@": 4668,
  "Fledermäuse": 4669,
  "Mr.": 4670,
  "prech@@": 4671,
  "ausgezeichnete": 4672,
  "wahl": 4673,
  "chst": 4674,
  "aufwa@@": 4675,
  "scheine": 4676,
  "Junggeselle": 4677,
  "fau@@": 4678,
  "anstren@@": 4679,
  "Aufzug": 4680,
  "Wür@@": 4681,
  "zung": 4682,
  "Überdosis": 4683,
  "normales": 4684,
  "Tai@@": 4685,
  "Weisheit": 4686,
  "brechen": 4687,
  "Dor@@": 4688,
  "Rhythmus": 4689,
  "umor": 4690,
  "telefonierten": 4691,
  "seltsame": 4692,
  "floh": 4693,
  "chtung": 4694,
  "Bl@@": 4695,
  "Ben@@": 4696,
  "unhöf@@": 4697,
  "Smith": 4698,
  "Ansichten": 4699,
  "Region": 4700,
  "sitzenlassen": 4701,
  "Französischunterricht": 4702,
  "45": 4703,
  "kieren": 4704,
  "Schmerz": 4705,
  "mus": 4706,
  "ausmachen": 4707,
  "Arbeit@@": 4708,
  "arbeitest": 4709,
  "hoch@@": 4710,
  "rt": 4711,
  "bemerkt": 4712,
  "aufwachen": 4713,
  "Bauern@@": 4714,
  "Heirat": 4715,
  "Kleides": 4716,
  "verbessern": 4717,
  "Erziehung": 4718,
  "Geldautomaten": 4719,
  "Sorge": 4720,
  "einhei@@": 4721,
  "Verkehr@@": 4722,
  "tsetzen": 4723,
  "beschä@@": 4724,
  "ohn@@": 4725,
  "sre@@": 4726,
  "tens": 4727,
  "kannter": 4728,
  "beunruhi@@": 4729,
  "Zweck": 4730,
  "Haut": 4731,
  "Kerle": 4732,
  "Mel@@": 4733,
  "Nebels": 4734,
  "verbrei@@": 4735,
  "beleuchtet": 4736,
  "tos": 4737,
  "port@@": 4738,
  "kenn@@": 4739,
  "Got@@": 4740,
  "Existenz": 4741,
  "zumu@@": 4742,
  "Glas@@": 4743,
  "Vorschriften": 4744,
  "reinen": 4745,
  "wasche": 4746,
  "Toile@@": 4747,
  "Flagge": 4748,
  "überquerte": 4749,
  "Elefant": 4750,
  "herein": 4751,
  "hiervon": 4752,
  "il": 4753,
  "Deta@@": 4754,
  "hafte": 4755,
  "Lieblingsschriftsteller": 4756,
  "beabsichtigt": 4757,
  "Mitarbeiter": 4758,
  "ühle": 4759,
  "Pfirsich@@": 4760,
  "treiben": 4761,
  "erwischte": 4762,
  "Miete": 4763,
  "uss": 4764,
  "tzumachen": 4765,
  "Mobiltelefon": 4766,
  "Möglich@@": 4767,
  "Lot@@": 4768,
  "Wortes": 4769,
  "kol@@": 4770,
  "grenzt": 4771,
  "haf@@": 4772,
  "Flug@@": 4773,
  "Begriff": 4774,
  "bemühst": 4775,
  "erreicht": 4776,
  "sank": 4777,
  "Station": 4778,
  "Schmuck": 4779,
  "Besseres": 4780,
  "Versehen": 4781,
  "langsamer": 4782,
  "Fol@@": 4783,
  "Hochschule": 4784,
  "erwarte": 4785,
  "aufgestellt": 4786,
  "Kuss": 4787,
  "schlechtes": 4788,
  "verschie@@": 4789,
  "klingen": 4790,
  "wirkte": 4791,
  "äng@@": 4792,
  "erwies": 4793,
  "lädt": 4794,
  "Stein@@": 4795,
  "Tal@@": 4796,
  "aufzunehmen": 4797,
  "Fahrgäste": 4798,
  "pp": 4799,
  "Schildkröten": 4800,
  "umgehen": 4801,
  "Jugend@@": 4802,
  "Berg@@": 4803,
  "erreichbar": 4804,
  "Reihenfolge": 4805,
  "oner": 4806,
  "schwul": 4807,
  "käme": 4808,
  "ressen": 4809,
  "Krokodil": 4810,
  "erwerben": 4811,
  "Bauch@@": 4812,
  "äußerste": 4813,
  "Aufgaben": 4814,
  "Zentimeter": 4815,
  "Spiegel": 4816,
  "gig": 4817,
  "Such": 4818,
  "gekehrt": 4819,
  "umge@@": 4820,
  "Masse": 4821,
  "Schulter": 4822,
  "zel@@": 4823,
  "weiterzu@@": 4824,
  "sammlung": 4825,
  "Kater": 4826,
  "zten": 4827,
  "Geister": 4828,
  "Halloween": 4829,
  "Geige": 4830,
  "zweite": 4831,
  "besie@@": 4832,
  "römische": 4833,
  "9": 4834,
  "Schlacht": 4835,
  "gekocht": 4836,
  "Du@@": 4837,
  "Steuer@@": 4838,
  "aufhörst": 4839,
  "Ländern": 4840,
  "Prinz": 4841,
  "sätzlich": 4842,
  "fahr@@": 4843,
  "herzlich": 4844,
  "Bildung": 4845,
  "Löwe": 4846,
  "gesteckt": 4847,
  "Schublade": 4848,
  "Schauspieler": 4849,
  "solcher": 4850,
  "urteilen": 4851,
  "Gesichtsausdruck": 4852,
  "tigte": 4853,
  "lierte": 4854,
  "regnete": 4855,
  "Fuji": 4856,
  "Dienstag": 4857,
  "geschieden": 4858,
  "japani@@": 4859,
  "Bergwerken": 4860,
  "Mineralien": 4861,
  "Wertvolle": 4862,
  "mitkommen": 4863,
  "nass": 4864,
  "Brüste": 4865,
  "endet": 4866,
  "wert@@": 4867,
  "sparen": 4868,
  "Wettbewer@@": 4869,
  "geerbt": 4870,
  "stirbt": 4871,
  "Asche": 4872,
  "eig@@": 4873,
  "Haustier": 4874,
  "Billi@@": 4875,
  "beträgt": 4876,
  "ober@@": 4877,
  "tiges": 4878,
  "gebung": 4879,
  "tkommen": 4880,
  "irgendeiner": 4881,
  "3,4": 4882,
  "Millionäre": 4883,
  "Mittwoch": 4884,
  "Anschein": 4885,
  "wirtschaf@@": 4886,
  "umzubringen": 4887,
  "arrieren": 4888,
  "Gerichte": 4889,
  "Monde": 4890,
  "itä@@": 4891,
  "Johann": 4892,
  "gehandelt": 4893,
  "wählten": 4894,
  "angenehm": 4895,
  "stei@@": 4896,
  "Schlaumeier": 4897,
  "brin@@": 4898,
  "Jugend": 4899,
  "bereuen": 4900,
  "zugegeben": 4901,
  "falls@@": 4902,
  "klug": 4903,
  "entdeckte": 4904,
  "herunter@@": 4905,
  "Parks": 4906,
  "heim": 4907,
  "kehrte": 4908,
  "erler@@": 4909,
  "ost@@": 4910,
  "fär@@": 4911,
  "Rat@@": 4912,
  "Alkohol": 4913,
  "zöger@@": 4914,
  "Laufen": 4915,
  "Ostern": 4916,
  "Erinnerungen": 4917,
  "kennenlernte": 4918,
  "begabt": 4919,
  "enthält": 4920,
  "Ozeane": 4921,
  "geweckt": 4922,
  "fil@@": 4923,
  "Veränderung": 4924,
  "landen": 4925,
  "irgend": 4926,
  "tun@@": 4927,
  "Ehe": 4928,
  "auszugehen": 4929,
  "Passagiere": 4930,
  "geschä@@": 4931,
  "Heim": 4932,
  "abgereist": 4933,
  "hauen": 4934,
  "Brasili@@": 4935,
  "Trink@@": 4936,
  "sturzbetrunken": 4937,
  "pel": 4938,
  "beizubringen": 4939,
  "zehnte": 4940,
  "Dieberei": 4941,
  "Freundinnen": 4942,
  "wichtiger": 4943,
  "hinzufü@@": 4944,
  "Rechnungen": 4945,
  "beliebt": 4946,
  "wöl@@": 4947,
  "verknallt": 4948,
  "anzusprechen": 4949,
  "Freiheits@@": 4950,
  "zweit": 4951,
  "hingerissen": 4952,
  "runter": 4953,
  "verhaften": 4954,
  "benannt": 4955,
  "pen@@": 4956,
  "Schirm": 4957,
  "Rente": 4958,
  "buchstabiert": 4959,
  "Zwillingsbruder": 4960,
  "Verbrech@@": 4961,
  "wüh@@": 4962,
  "William": 4963,
  "Sieg": 4964,
  "Rätsel": 4965,
  "brachten": 4966,
  "kämest": 4967,
  "fleißig": 4968,
  "ausging": 4969,
  "umt": 4970,
  "schläge": 4971,
  "Tanzen": 4972,
  "herausfinden": 4973,
  "Ex": 4974,
  "Partei": 4975,
  "begehen": 4976,
  "sager": 4977,
  "Verabredung": 4978,
  "erzählten": 4979,
  "liste": 4980,
  "wiederkommen": 4981,
  "wommen": 4982,
  "nackt": 4983,
  "arrogant": 4984,
  "starrte": 4985,
  "Atom@@": 4986,
  "Recht@@": 4987,
  "schaffe": 4988,
  "schüchter@@": 4989,
  "Jack": 4990,
  "Zeitschrift": 4991,
  "örtliche": 4992,
  "edi@@": 4993,
  "seln": 4994,
  "Indi@@": 4995,
  "Begabung": 4996,
  "hineingehen": 4997,
  "fassung": 4998,
  "gerer": 4999,
  "uren": 5000,
  "deutsche": 5001,
  "Berliner": 5002,
  "beoba@@": 5003,
  "entschied": 5004,
  "fel@@": 5005,
  "hauf@@": 5006,
  "Frü@@": 5007,
  "Hälfte": 5008,
  "erblin@@": 5009,
  "ja@@": 5010,
  "ow@@": 5011,
  "lein": 5012,
  "Wetter@@": 5013,
  "ücken": 5014,
  "dreck@@": 5015,
  "Kr@@": 5016,
  "erfri@@": 5017,
  "arbeiteten": 5018,
  "Schlag": 5019,
  "trotzdem": 5020,
  "geschn@@": 5021,
  "kauf": 5022,
  "auff@@": 5023,
  "nirgends": 5024,
  "Drei": 5025,
  "übers": 5026,
  "irgendjemand": 5027,
  "Frosch": 5028,
  "talenti@@": 5029,
  "aufschlussreich": 5030,
  "Kie@@": 5031,
  "falschen": 5032,
  "teilte": 5033,
  "laden": 5034,
  "klicken": 5035,
  "hrung": 5036,
  "treu@@": 5037,
  "durchgelesen": 5038,
  "Schuss": 5039,
  "atmen": 5040,
  "büchern": 5041,
  "Wach@@": 5042,
  "schaffst": 5043,
  "selben": 5044,
  "Schülern": 5045,
  "su@@": 5046,
  "Dach": 5047,
  "vertraute": 5048,
  "gerin@@": 5049,
  "zeitig": 5050,
  "eres": 5051,
  "hohen": 5052,
  "Papi@@": 5053,
  "übt": 5054,
  "karte": 5055,
  "Rau@@": 5056,
  "Vorgarten": 5057,
  "Cookie": 5058,
  "ordentlich": 5059,
  "schw@@": 5060,
  "beteiligt": 5061,
  "fig@@": 5062,
  "theorie": 5063,
  "tivitä@@": 5064,
  "Fest": 5065,
  "nee@@": 5066,
  "3000": 5067,
  "sprecht": 5068,
  "begreifen": 5069,
  "weili@@": 5070,
  "garten": 5071,
  "nette": 5072,
  "Buben": 5073,
  "Tony": 5074,
  "funk@@": 5075,
  "pon@@": 5076,
  "Bruders": 5077,
  "schreck@@": 5078,
  "Haup@@": 5079,
  "nützlich": 5080,
  "riet": 5081,
  "Atlan@@": 5082,
  "geringsten": 5083,
  "Sz@@": 5084,
  "trauri@@": 5085,
  "interessante": 5086,
  "kap@@": 5087,
  "Ferne": 5088,
  "elei@@": 5089,
  "Sosehr": 5090,
  "ehr": 5091,
  "versuchten": 5092,
  "zerstörte": 5093,
  "Chicago": 5094,
  "irgendwohin": 5095,
  "tanken": 5096,
  "Schlips": 5097,
  "Gö@@": 5098,
  "min@@": 5099,
  "gestri@@": 5100,
  "Kneipe": 5101,
  "Gesundheitspro@@": 5102,
  "vertraue": 5103,
  "Unglücklicherweise": 5104,
  "haup@@": 5105,
  "angestellt": 5106,
  "duldi@@": 5107,
  "unzureichend": 5108,
  "Qualität": 5109,
  "wirken@@": 5110,
  "ff": 5111,
  "Fluss@@": 5112,
  "übel": 5113,
  "bilder": 5114,
  "gera@@": 5115,
  "ppe": 5116,
  "enzen": 5117,
  "Ausge@@": 5118,
  "antwortet": 5119,
  "beginnt": 5120,
  "umgeh@@": 5121,
  "Summe": 5122,
  "strö@@": 5123,
  "Rake@@": 5124,
  "zün@@": 5125,
  "erscheinen": 5126,
  "auftreten": 5127,
  "Bell": 5128,
  "jünger": 5129,
  "furchtbar": 5130,
  "schlauer": 5131,
  "Entführer": 5132,
  "Bil@@": 5133,
  "oper@@": 5134,
  "Flöte": 5135,
  "bestand": 5136,
  "aussprechen": 5137,
  "erwachte": 5138,
  "landete": 5139,
  "Laufenden": 5140,
  "Bru@@": 5141,
  "schlimmer": 5142,
  "blieben": 5143,
  "Schüssel": 5144,
  "fleisch": 5145,
  "Fru@@": 5146,
  "schwei@@": 5147,
  "Karten@@": 5148,
  "stunden@@": 5149,
  "servieren": 5150,
  "väter@@": 5151,
  "voraus": 5152,
  "Koffein": 5153,
  "Ehefrau": 5154,
  "Jahrhundert": 5155,
  "Rück@@": 5156,
  "Raum@@": 5157,
  "Galileo": 5158,
  "pflücken": 5159,
  "faulen": 5160,
  "Drück": 5161,
  "Kommentaren": 5162,
  "hol@@": 5163,
  "Verb": 5164,
  "üh@@": 5165,
  "Glau@@": 5166,
  "Blätter": 5167,
  "Fahrer": 5168,
  "geputzt": 5169,
  "Produktivität": 5170,
  "unterschreiben": 5171,
  "übergewichtig": 5172,
  "urer": 5173,
  "stlich": 5174,
  "hy@@": 5175,
  "okay": 5176,
  "Baseball@@": 5177,
  "achtzehn": 5178,
  "kle@@": 5179,
  "Münzen": 5180,
  "vorbereitet": 5181,
  "fürchtete": 5182,
  "springen": 5183,
  "beschweren": 5184,
  "beleu@@": 5185,
  "beiseite": 5186,
  "-@@": 5187,
  "zufriedenzustellen": 5188,
  "Argument": 5189,
  "Felder": 5190,
  "Berge": 5191,
  "größeren": 5192,
  "wäh@@": 5193,
  "Farm": 5194,
  "George": 5195,
  "Wirkung": 5196,
  "Ster@@": 5197,
  "unterwegs": 5198,
  "leidet": 5199,
  "freigelassen": 5200,
  "Pandas": 5201,
  "tätigen": 5202,
  "Dima": 5203,
  "Keh@@": 5204,
  "geöffnet": 5205,
  "Volks@@": 5206,
  "schnell@@": 5207,
  "tschafts@@": 5208,
  "Wir@@": 5209,
  "mutmaß@@": 5210,
  "erseits": 5211,
  "Intelligenz": 5212,
  "günsti@@": 5213,
  "bahn": 5214,
  "Bürger": 5215,
  "ponist": 5216,
  "berau@@": 5217,
  "bedauer@@": 5218,
  "Ruhm": 5219,
  "Wider@@": 5220,
  "lacht": 5221,
  "Spa@@": 5222,
  "stren@@": 5223,
  "gerannt": 5224,
  "band": 5225,
  "chs": 5226,
  "verfügt": 5227,
  "möchtet": 5228,
  "überglücklich": 5229,
  "Landes": 5230,
  "Gest@@": 5231,
  "angel": 5232,
  "beschwert": 5233,
  "Chin@@": 5234,
  "Touristen": 5235,
  "Verlo@@": 5236,
  "Magenschmerzen": 5237,
  "schaltete": 5238,
  "Wä@@": 5239,
  "dacht": 5240,
  "natürlichen": 5241,
  "frischer": 5242,
  "Symbol": 5243,
  "verziehen": 5244,
  "Geschwindig@@": 5245,
  "Sandwich": 5246,
  "gesto@@": 5247,
  "Metern": 5248,
  "Hebrä@@": 5249,
  "dringende": 5250,
  "Kna@@": 5251,
  "System": 5252,
  "schafften": 5253,
  "Boo@@": 5254,
  "Hausarbeit": 5255,
  "nachzu@@": 5256,
  "wirken": 5257,
  "freut": 5258,
  "überqueren": 5259,
  "graue": 5260,
  "Kätzchen": 5261,
  "Erwachsen@@": 5262,
  "Stein": 5263,
  "Armenien": 5264,
  "eingeprägt": 5265,
  "Zusammenhang": 5266,
  "pflich@@": 5267,
  "erinnerte": 5268,
  "Lippen@@": 5269,
  "amerikani@@": 5270,
  "stift": 5271,
  "nachschlagen": 5272,
  "tap@@": 5273,
  "betrachteten": 5274,
  "schlappen": 5275,
  "aufbleiben": 5276,
  "französi@@": 5277,
  "Straßen": 5278,
  "möglichst": 5279,
  "legt": 5280,
  "glau@@": 5281,
  "Schaufenster": 5282,
  "riesigen": 5283,
  "saufen": 5284,
  "Daumen": 5285,
  "Parlament": 5286,
  "griffen": 5287,
  "kun@@": 5288,
  "Abwasch": 5289,
  "nlich": 5290,
  "Gassi": 5291,
  "grü@@": 5292,
  "Zähne": 5293,
  "Kau@@": 5294,
  "mmi": 5295,
  "Nudeln": 5296,
  "𝑘": 5297,
  "Wusstet": 5298,
  "stert": 5299,
  "scheinst": 5300,
  "darstell@@": 5301,
  "menschlicher": 5302,
  "vari@@": 5303,
  "Ägypten": 5304,
  "Fried@@": 5305,
  "eurem": 5306,
  "Kategorie": 5307,
  "Dumm@@": 5308,
  "einfachem": 5309,
  "samen": 5310,
  "Bevölkerungs@@": 5311,
  "Hawaii": 5312,
  "tor": 5313,
  "Stör@@": 5314,
  "dreizehn": 5315,
  "bereich": 5316,
  "irgendwas": 5317,
  "intelligent": 5318,
  "klettern": 5319,
  "lecker": 5320,
  "Win@@": 5321,
  "sack": 5322,
  "Shi@@": 5323,
  "T": 5324,
  "lieh": 5325,
  "wovon": 5326,
  "investi@@": 5327,
  "zieh@@": 5328,
  "Sportwagen": 5329,
  "fürs": 5330,
  "Baumwolle": 5331,
  "are": 5332,
  "geholt": 5333,
  "Ofen": 5334,
  "appen": 5335,
  "bietet": 5336,
  "rin@@": 5337,
  "Übung": 5338,
  "Noten": 5339,
  "samm@@": 5340,
  "Ei": 5341,
  "ödie": 5342,
  "Glasscherben": 5343,
  "Proble@@": 5344,
  "end@@": 5345,
  "sprin@@": 5346,
  "springe": 5347,
  "geschaut": 5348,
  "apparat": 5349,
  "äuschen": 5350,
  "fet@@": 5351,
  "andau@@": 5352,
  "wirft": 5353,
  "schmutzig": 5354,
  "glaub": 5355,
  "heutige": 5356,
  "trafen": 5357,
  "aren": 5358,
  "unterrichte": 5359,
  "Aben@@": 5360,
  "nennst": 5361,
  "Schwanz": 5362,
  "vertrei@@": 5363,
  "Lebenswillen": 5364,
  "zurückzu@@": 5365,
  "tteten": 5366,
  "ankam": 5367,
  "benahm": 5368,
  "Musik@@": 5369,
  "fä@@": 5370,
  "Krawatte": 5371,
  "forder@@": 5372,
  "bord": 5373,
  "ve@@": 5374,
  "enorme": 5375,
  "Eifersucht": 5376,
  "besprochen": 5377,
  "nirgendwo": 5378,
  "Chines@@": 5379,
  "kannt": 5380,
  "Layla": 5381,
  "Schatten": 5382,
  "eiten": 5383,
  "überqu@@": 5384,
  "Nachts": 5385,
  "aussteigen": 5386,
  "Lo@@": 5387,
  "ales": 5388,
  "gepflanzt": 5389,
  "Eros": 5390,
  "effe@@": 5391,
  "Engel": 5392,
  "griechi@@": 5393,
  "Schildkröte": 5394,
  "wäl@@": 5395,
  "Süßigkeiten": 5396,
  "begrüßen": 5397,
  "zlich": 5398,
  "kür@@": 5399,
  "bewohner": 5400,
  "Haaren": 5401,
  "Höhe": 5402,
  "nannte": 5403,
  "same": 5404,
  "Flu@@": 5405,
  "Ali@@": 5406,
  "kes": 5407,
  "buk": 5408,
  "6000": 5409,
  "Luftverschmutzung": 5410,
  "ere@@": 5411,
  "ück@@": 5412,
  "Aufmerksamkeit": 5413,
  "äuber": 5414,
  "riesiges": 5415,
  "Wirtschaft": 5416,
  "warte@@": 5417,
  "Weinkarte": 5418,
  "irrt": 5419,
  "korrigiert": 5420,
  "Instin@@": 5421,
  "Italien@@": 5422,
  "Missverständnis": 5423,
  "irgendein": 5424,
  "brau@@": 5425,
  "lässig": 5426,
  "Zwischen@@": 5427,
  "Hinweise": 5428,
  "gerät": 5429,
  "White": 5430,
  "üchtig": 5431,
  "bewerben": 5432,
  "ähige": 5433,
  "Uhr@@": 5434,
  "schwarzen": 5435,
  "Führerschein": 5436,
  "schaden": 5437,
  "ett": 5438,
  "wiege": 5439,
  "Zeh": 5440,
  "undet": 5441,
  "Englischen": 5442,
  "Mio.": 5443,
  "fröhlich": 5444,
  "1,@@": 5445,
  "beieinander": 5446,
  "nahe": 5447,
  "Astero@@": 5448,
  "verursacht": 5449,
  "Geräusch": 5450,
  "Theater@@": 5451,
  "rote": 5452,
  "angenehme": 5453,
  "Nettes": 5454,
  "Geschäftsleute": 5455,
  "19": 5456,
  "mlich": 5457,
  "Halbbruder": 5458,
  "Held": 5459,
  "tragischen": 5460,
  "All@@": 5461,
  "Ring": 5462,
  "kündigte": 5463,
  "Muttersprache": 5464,
  "blin@@": 5465,
  "Seit": 5466,
  "glichen": 5467,
  "cket": 5468,
  "80": 5469,
  "ünde": 5470,
  "Neues": 5471,
  "anmachen": 5472,
  "Kaninchen": 5473,
  "abgele@@": 5474,
  "äußerst": 5475,
  "per": 5476,
  "Gebiet": 5477,
  "nten": 5478,
  "Langerweile": 5479,
  "Feuerwehr@@": 5480,
  "neben@@": 5481,
  "Reis@@": 5482,
  "hindern": 5483,
  "taten": 5484,
  "som@@": 5485,
  "eint": 5486,
  "schädlichen": 5487,
  "Nebenwirkungen": 5488,
  "Schla@@": 5489,
  "gewisse": 5490,
  "gab@@": 5491,
  "Verpflich@@": 5492,
  "heili@@": 5493,
  "haltung": 5494,
  "moder@@": 5495,
  "sst": 5496,
  "durchnä@@": 5497,
  "vergesst": 5498,
  "meintest": 5499,
  "west@@": 5500,
  "dig": 5501,
  "Käfer": 5502,
  "wirk@@": 5503,
  "0@@": 5504,
  "heraus@@": 5505,
  "erfahrener": 5506,
  "ret@@": 5507,
  "erschreckt": 5508,
  "Ö@@": 5509,
  "Züge": 5510,
  "gewöhnen": 5511,
  "Kontakt": 5512,
  "eilte": 5513,
  "do@@": 5514,
  "Mathe": 5515,
  "Geltung": 5516,
  "gegensei@@": 5517,
  "irre": 5518,
  "binden": 5519,
  "etz": 5520,
  "ologie": 5521,
  "kennen@@": 5522,
  "Phantasie": 5523,
  "Gemeinsamkeiten": 5524,
  "tätet": 5525,
  "Ausbildung": 5526,
  "omen": 5527,
  "Leiter": 5528,
  "kern": 5529,
  "einander@@": 5530,
  "Wellen": 5531,
  "Trieb": 5532,
  "wick@@": 5533,
  "Nat@@": 5534,
  "Figur": 5535,
  "ür": 5536,
  "zimm@@": 5537,
  "entsprechend": 5538,
  "umten": 5539,
  "abgeben": 5540,
  "vergleicht": 5541,
  "nieder@@": 5542,
  "Bären": 5543,
  "ften": 5544,
  "sam": 5545,
  "einziehen": 5546,
  "verlaufen": 5547,
  "Antrag": 5548,
  "of": 5549,
  "Preisschild": 5550,
  "tzer": 5551,
  "Universitä@@": 5552,
  "Klamotten": 5553,
  "Laden@@": 5554,
  "reicht": 5555,
  "erwi@@": 5556,
  "dürften": 5557,
  "schätze": 5558,
  "Satelliten": 5559,
  "sal@@": 5560,
  "umme": 5561,
  "dankbar": 5562,
  "aush@@": 5563,
  "fett": 5564,
  "mittelalterliche": 5565,
  "ehrenamtlich": 5566,
  "bestelle": 5567,
  "Obdach@@": 5568,
  "Wichtigkeit": 5569,
  "reichend": 5570,
  "Blödsinn": 5571,
  "hervor@@": 5572,
  "wenigsten": 5573,
  "viel@@": 5574,
  "pflegte": 5575,
  "Herausforderung": 5576,
  "fotografiert": 5577,
  "fernsehen": 5578,
  "sier@@": 5579,
  "vergaß": 5580,
  "angesehen": 5581,
  "chern": 5582,
  "gebenheiten": 5583,
  "Anwesenheit": 5584,
  "Böse": 5585,
  "produ@@": 5586,
  "tiver": 5587,
  "ll": 5588,
  "beför@@": 5589,
  "ffer": 5590,
  "kul@@": 5591,
  "Japanische": 5592,
  "kitzlig": 5593,
  "relative": 5594,
  "kranken": 5595,
  "Ō@@": 5596,
  "mussten": 5597,
  "Klavierspielen": 5598,
  "wozu": 5599,
  "rollen": 5600,
  "optimistisch": 5601,
  "Je@@": 5602,
  "Anfangs": 5603,
  "stände": 5604,
  "getraut": 5605,
  "belegt": 5606,
  "offenbar": 5607,
  "danken": 5608,
  "Todesopfer": 5609,
  "Hoch@@": 5610,
  "inn": 5611,
  "fragt": 5612,
  "melde": 5613,
  "respek@@": 5614,
  "gerecht": 5615,
  "Monroe": 5616,
  "Marilyn": 5617,
  "Menschen@@": 5618,
  "Flugzeuge": 5619,
  "vorkommen": 5620,
  "äußere": 5621,
  "tur@@": 5622,
  "ignorieren": 5623,
  "öl@@": 5624,
  "Polizei@@": 5625,
  "Theater": 5626,
  "block": 5627,
  "Yoko": 5628,
  "Sit@@": 5629,
  "chter": 5630,
  "Kobe": 5631,
  "ose": 5632,
  "zurückkam": 5633,
  "fung": 5634,
  "blind": 5635,
  "schluss": 5636,
  "Mittelalter": 5637,
  "Turm": 5638,
  "stammt": 5639,
  "schnar@@": 5640,
  "Abschluss@@": 5641,
  "mischte": 5642,
  "Zö@@": 5643,
  "protesti@@": 5644,
  "Daten": 5645,
  "klappt": 5646,
  "Schlafen": 5647,
  "beteili@@": 5648,
  "derzeit": 5649,
  "splitterfasernackt": 5650,
  "pft": 5651,
  "gelten": 5652,
  "Nehmt": 5653,
  "ät": 5654,
  "antworten": 5655,
  "Stock@@": 5656,
  "bauten": 5657,
  "zukommt": 5658,
  "Fliegen": 5659,
  "träge": 5660,
  "schule": 5661,
  "positiv": 5662,
  "öfter": 5663,
  "Schnapp@@": 5664,
  "besaß": 5665,
  "Was": 5666,
  "gratu@@": 5667,
  "versuchst": 5668,
  "Ziele": 5669,
  "Löffel": 5670,
  "Briefmarke": 5671,
  "kleben": 5672,
  "konzentriert": 5673,
  "Steak": 5674,
  "schwach": 5675,
  "genie@@": 5676,
  "Cola": 5677,
  "Säuge@@": 5678,
  "Videospi@@": 5679,
  "Bewer@@": 5680,
  "no@@": 5681,
  "egoistisch": 5682,
  "reichste": 5683,
  "Pfer@@": 5684,
  "abgebrochen": 5685,
  "traditionelle": 5686,
  "pleite": 5687,
  "begegnen": 5688,
  "hrte": 5689,
  "mensch@@": 5690,
  "seur": 5691,
  "Film@@": 5692,
  "erfolg@@": 5693,
  "beschü@@": 5694,
  "els@@": 5695,
  "zweif@@": 5696,
  "typi@@": 5697,
  "Fortschritt": 5698,
  "Milch@@": 5699,
  "geschichte": 5700,
  "Dach@@": 5701,
  "ternäch@@": 5702,
  "mmung": 5703,
  "lab@@": 5704,
  "mut": 5705,
  "ewi@@": 5706,
  "anrufst": 5707,
  "Wikipedia": 5708,
  "Romane": 5709,
  "Ann": 5710,
  "englischer": 5711,
  "Spit@@": 5712,
  "Vertrag": 5713,
  "Stadt@@": 5714,
  "pos@@": 5715,
  "stück": 5716,
  "ppich": 5717,
  "gesam@@": 5718,
  "Schwimmen": 5719,
  "kennenzulernen": 5720,
  "einiger": 5721,
  "Nebel": 5722,
  "Angel@@": 5723,
  "Los": 5724,
  "Haustiere": 5725,
  "überraschte": 5726,
  "echter": 5727,
  "Diamant": 5728,
  "Artikels": 5729,
  "schmeckte": 5730,
  "Lernen": 5731,
  "Postkarte": 5732,
  "Geschmack": 5733,
  "glich@@": 5734,
  "fliegende": 5735,
  "unserem": 5736,
  "japanischen": 5737,
  "fried@@": 5738,
  "Tu@@": 5739,
  "vern@@": 5740,
  "Rock": 5741,
  "Schick": 5742,
  "untersuchen": 5743,
  "vorzu@@": 5744,
  "ehm@@": 5745,
  "prüfung": 5746,
  "erlebt": 5747,
  "wählte": 5748,
  "bestellt": 5749,
  "teilung": 5750,
  "Verkauf@@": 5751,
  "8": 5752,
  "Deutschlands": 5753,
  "fähig": 5754,
  "onie": 5755,
  "Nenn": 5756,
  "bemerken": 5757,
  "Bonbons": 5758,
  "Arten": 5759,
  "Minirock": 5760,
  "verachte": 5761,
  "Der@@": 5762,
  "big": 5763,
  "verriegelt": 5764,
  "tsa@@": 5765,
  "Beachtung": 5766,
  "Grüße": 5767,
  "schenkt": 5768,
  "ichtet": 5769,
  "ven@@": 5770,
  "abgelehnt": 5771,
  "angelogen": 5772,
  "schar@@": 5773,
  "grö@@": 5774,
  "tlichen": 5775,
  "anständige": 5776,
  "nar@@": 5777,
  "Liebling@@": 5778,
  "abhängi@@": 5779,
  "Bestra@@": 5780,
  "Zei@@": 5781,
  "Verstecken": 5782,
  "gelä@@": 5783,
  "Klang": 5784,
  "keinem": 5785,
  "Foto@@": 5786,
  "streichen": 5787,
  "amüsieren": 5788,
  "Zauberer": 5789,
  "entschlossen": 5790,
  "änger": 5791,
  "willensstark": 5792,
  "wör@@": 5793,
  "Mal@@": 5794,
  "nachlässig": 5795,
  "wiederzu@@": 5796,
  "hung": 5797,
  "Abschluss": 5798,
  "schreiber": 5799,
  "schten": 5800,
  "Grunde": 5801,
  "Ch@@": 5802,
  "spanischen": 5803,
  "dens": 5804,
  "Nächstes": 5805,
  "pf": 5806,
  "angen@@": 5807,
  "Teilen": 5808,
  "Rein@@": 5809,
  "Exfreund": 5810,
  "weile": 5811,
  "verfasst": 5812,
  "bo@@": 5813,
  "Jungs": 5814,
  "Lkw": 5815,
  "bäte": 5816,
  "ermor@@": 5817,
  "bier": 5818,
  "verriet": 5819,
  "Vorhänge": 5820,
  "prügelt": 5821,
  "flach": 5822,
  "zufrieden@@": 5823,
  "erscheint": 5824,
  "arme": 5825,
  "attra@@": 5826,
  "fun@@": 5827,
  "einfache": 5828,
  "sachen": 5829,
  "Wechsel@@": 5830,
  "kur@@": 5831,
  "pfe": 5832,
  "Entwicklungs@@": 5833,
  "Panikattacke": 5834,
  "dreht": 5835,
  "zurückgelassen": 5836,
  "Geburt": 5837,
  "wandle": 5838,
  "Gescheites": 5839,
  "still@@": 5840,
  "anwachsen@@": 5841,
  "wün@@": 5842,
  "Sem@@": 5843,
  "wandelte": 5844,
  "heu@@": 5845,
  "tot@@": 5846,
  "hof@@": 5847,
  "Bahn@@": 5848,
  "Im": 5849,
  "Kandidat": 5850,
  "Frisör": 5851,
  "nachhause": 5852,
  "was@@": 5853,
  "einig@@": 5854,
  "Muttersprachler": 5855,
  "engli@@": 5856,
  "meich@@": 5857,
  "glücklicher": 5858,
  "Braun": 5859,
  "Nummer": 5860,
  "aufhört": 5861,
  "beu@@": 5862,
  "befassen": 5863,
  "erfolgreicher": 5864,
  "schlafe": 5865,
  "traut": 5866,
  "Spre@@": 5867,
  "Mischung": 5868,
  "harte": 5869,
  "betrug": 5870,
  "Mayuko": 5871,
  "rech@@": 5872,
  "Markt": 5873,
  "wies": 5874,
  "vergeblich": 5875,
  "zukommen": 5876,
  "wechselte": 5877,
  "aufgeräumt": 5878,
  "erfreut": 5879,
  "Bau@@": 5880,
  "fair": 5881,
  "Malzgehalt": 5882,
  "teste": 5883,
  "gegründet": 5884,
  "Brü@@": 5885,
  "Winde": 5886,
  "weht": 5887,
  "vertragen": 5888,
  "Baumwoll@@": 5889,
  "nissen": 5890,
  "Ergeb@@": 5891,
  "geschenkt": 5892,
  "Stad@@": 5893,
  "dung": 5894,
  "ener": 5895,
  "Itali@@": 5896,
  "ersch@@": 5897,
  "Heu@@": 5898,
  "recke": 5899,
  "nei": 5900,
  "verwenden": 5901,
  "Erfolges": 5902,
  "Bom@@": 5903,
  "August": 5904,
  "fielen": 5905,
  "Ty@@": 5906,
  "Erdoberfläche": 5907,
  "lehrer": 5908,
  "Schmidt": 5909,
  "Streit": 5910,
  "Fu@@": 5911,
  "sonntags": 5912,
  "zurückge@@": 5913,
  "bild": 5914,
  "erhob": 5915,
  "Dem@@": 5916,
  "ok@@": 5917,
  "zes": 5918,
  "führer@@": 5919,
  "redete": 5920,
  "Herbst": 5921,
  "fernzu@@": 5922,
  "pfer": 5923,
  "schwacher": 5924,
  "Professor": 5925,
  "weich": 5926,
  "verlangt": 5927,
  "Steuer": 5928,
  "Welpen": 5929,
  "Noti@@": 5930,
  "bedeuten": 5931,
  "Kleinigkeiten": 5932,
  "Haltestelle": 5933,
  "stan@@": 5934,
  "Ehem@@": 5935,
  "nick@@": 5936,
  "Meeting": 5937,
  "verstand": 5938,
  "lieb": 5939,
  "Marika": 5940,
  "schn@@": 5941,
  "schwere": 5942,
  "getrunken": 5943,
  "Krie@@": 5944,
  "Pe@@": 5945,
  "sammeln": 5946,
  "fehler@@": 5947,
  "seits": 5948,
  "wid@@": 5949,
  "überlegen": 5950,
  "Bisher": 5951,
  "wetter": 5952,
  "ucht": 5953,
  "dach@@": 5954,
  "Woh@@": 5955,
  "Gabel": 5956,
  "Händler": 5957,
  "Mexik@@": 5958,
  "sinn": 5959,
  "küsst": 5960,
  "hingegen": 5961,
  "mieten": 5962,
  "Speisekarte": 5963,
  "fühlen": 5964,
  "Königin": 5965,
  "Mai": 5966,
  "oss": 5967,
  "Rus@@": 5968,
  "Studium": 5969,
  "Verletzungen": 5970,
  "eingezogen": 5971,
  "Pä@@": 5972,
  "halben": 5973,
  "eis": 5974,
  "ähnlich": 5975,
  "mäh@@": 5976,
  "packen": 5977,
  "wäss@@": 5978,
  "frü@@": 5979,
  "Sackgasse": 5980,
  "ichts@@": 5981,
  "stisch": 5982,
  "fehl": 5983,
  "kten": 5984,
  "mis@@": 5985,
  "Pap@@": 5986,
  "Probieren": 5987,
  "Festland": 5988,
  "verr@@": 5989,
  "beinhaltet": 5990,
  "zur@@": 5991,
  "Arbeitslosenquote": 5992,
  "euert": 5993,
  "Gleiche": 5994,
  "ess": 5995,
  "protestierte": 5996,
  "dean@@": 5997,
  "Südamerik@@": 5998,
  "problematisch": 5999,
  "1900": 6000,
  "Autor": 6001,
  "entschloss": 6002,
  "verführen": 6003,
  "blöd": 6004,
  "nisch": 6005,
  "material": 6006,
  "großartige": 6007,
  "Papier@@": 6008,
  "Französischlehrerin": 6009,
  "Schild": 6010,
  "tel@@": 6011,
  "Kellner": 6012,
  "Teller": 6013,
  "xis": 6014,
  "derart": 6015,
  "Hirsch": 6016,
  "Por@@": 6017,
  "Schubs": 6018,
  "tation": 6019,
  "äumen": 6020,
  "Körper": 6021,
  "wunderschön": 6022,
  "Anziehung": 6023,
  "korrumpiert": 6024,
  "bücher": 6025,
  "weinte": 6026,
  "zahlreiche": 6027,
  "tions@@": 6028,
  "sechzehn": 6029,
  "nall@@": 6030,
  "erstaunt": 6031,
  "sorgfältig": 6032,
  "berfläche": 6033,
  "verl@@": 6034,
  "Forsch@@": 6035,
  "überredet": 6036,
  "gendes": 6037,
  "stürzte": 6038,
  "bi@@": 6039,
  "Imm@@": 6040,
  "ander@@": 6041,
  "parken": 6042,
  "Damm": 6043,
  "trag": 6044,
  "amü@@": 6045,
  "beleidigt": 6046,
  "Benutz@@": 6047,
  "Tausend": 6048,
  "Monaten": 6049,
  "sozialen": 6050,
  "ertr@@": 6051,
  "rom@@": 6052,
  "beherrschen": 6053,
  "Krimin@@": 6054,
  "jekten": 6055,
  "sowie": 6056,
  "ernähren": 6057,
  "nchen": 6058,
  "benötigte": 6059,
  "system": 6060,
  "Wehe": 6061,
  "Verk@@": 6062,
  "schienen": 6063,
  "bahn@@": 6064,
  "Eis@@": 6065,
  "Schwimmbecken": 6066,
  "ologische": 6067,
  "Mathematik": 6068,
  "müsstest": 6069,
  "Wal@@": 6070,
  "pra@@": 6071,
  "Op@@": 6072,
  "Selbst@@": 6073,
  "lautes": 6074,
  "schafts@@": 6075,
  "5,@@": 6076,
  "Weihnachts@@": 6077,
  "sse@@": 6078,
  "testen": 6079,
  "schlau": 6080,
  "frites": 6081,
  "empfohlen": 6082,
  "miss@@": 6083,
  "äh": 6084,
  "nende": 6085,
  "Elisabeth": 6086,
  "Großeltern": 6087,
  "Schlu@@": 6088,
  "rücksichtsvoll": 6089,
  "gerissen": 6090,
  "Ket@@": 6091,
  "dol@@": 6092,
  "Geburtstags@@": 6093,
  "blo@@": 6094,
  "Wor@@": 6095,
  "des@@": 6096,
  "Hermann": 6097,
  "gebr@@": 6098,
  "tzei@@": 6099,
  "sym@@": 6100,
  "lowns": 6101,
  "Valent@@": 6102,
  "gebra": 6103,
  "glas@@": 6104,
  "Net@@": 6105,
  "photographi@@": 6106,
  "met@@": 6107,
  "Giada": 6108,
  "Protestan@@": 6109,
  "Hesse": 6110,
  "klas@@": 6111,
  "Speise@@": 6112,
  "miss": 6113,
  "iktor": 6114,
  "algebra@@": 6115,
  "law": 6116,
  "jahr": 6117,
  "Verkehrsun@@": 6118,
  "statt@@": 6119,
  "Francisco": 6120,
  "3.@@": 6121,
  "tät": 6122,
  "cho": 6123,
  "tma@@": 6124,
  "graphi@@": 6125,
  "Wol@@": 6126,
  "Ni@@": 6127,
  "Sh@@": 6128,
  "Pok@@": 6129,
  "000.@@": 6130,
  "000,@@": 6131,
  "Zigar@@": 6132,
  "1971": 6133,
  "pfel": 6134,
  "tar@@": 6135,
  "99": 6136,
  "Zwillin@@": 6137,
  "mals": 6138,
  "impor@@": 6139,
  "kit@@": 6140,
  "BYR": 6141,
  "Sal@@": 6142,
  "Abwas@@": 6143,
  "unterstü@@": 6144,
  "Ceres": 6145,
  "kis@@": 6146,
  "Ten@@": 6147,
  "gram@@": 6148,
  "pflan@@": 6149,
  "nis@@": 6150,
  "Aoi": 6151,
  "wunden": 6152,
  "1928": 6153,
  "Noguchi": 6154,
  "Stie@@": 6155,
  "sorgfäl@@": 6156,
  "41": 6157,
  "kne@@": 6158,
  "zufäl@@": 6159,
  "züglich": 6160,
  "ziehung": 6161,
  "CIA": 6162,
  "ase": 6163,
  "dein@@": 6164,
  "bers": 6165,
  "empfeh@@": 6166,
  "versi@@": 6167,
  "geschi@@": 6168,
  "mische": 6169,
  "spar@@": 6170,
  "bir@@": 6171,
  "ards": 6172,
  "usst": 6173,
  "gress": 6174,
  "sur@@": 6175,
  "Sil@@": 6176,
  "Minnesota": 6177,
  "1": 6178,
  "heren": 6179,
  "Akiko": 6180,
  "low@@": 6181,
  "auth@@": 6182,
  "Taninna": 6183,
  "Eu@@": 6184,
  "enge": 6185,
  "ächt@@": 6186,
  "station": 6187,
  "Kam@@": 6188,
  "Daniel": 6189,
  "bie@@": 6190,
  "vide@@": 6191,
  "ō@@": 6192,
  "Krank@@": 6193,
  "Keeton": 6194,
  "Nixon": 6195,
  "Million@@": 6196,
  "genheiten": 6197,
  "Infor@@": 6198,
  "ont": 6199,
  "zie@@": 6200,
  "sense": 6201,
  "affine": 6202,
  "Mö@@": 6203,
  "Susan": 6204,
  "dem@@": 6205,
  "hing": 6206,
  "gi": 6207,
  "Valentina": 6208,
  "ub@@": 6209,
  "Tur@@": 6210,
  "Greene": 6211,
  "prä@@": 6212,
  "redder": 6213,
  "Geschä@@": 6214,
  "Kran@@": 6215,
  "ones": 6216,
  "tter": 6217,
  "grei@@": 6218,
  "Graham": 6219,
  "telef@@": 6220,
  "erkraut": 6221,
  "osmonau@@": 6222,
  "Fortschri@@": 6223,
  "Gi@@": 6224,
  "For@@": 6225,
  "Magdalena": 6226,
  "Management": 6227,
  "Bon@@": 6228,
  "wur@@": 6229,
  "Georgi": 6230,
  "use": 6231,
  "Sen@@": 6232,
  "mnasi@@": 6233,
  "do": 6234,
  "schieden": 6235,
  "Klein": 6236,
  "rieb": 6237,
  "Sitz@@": 6238,
  "läch@@": 6239,
  "go@@": 6240,
  "umm": 6241,
  "So@@": 6242,
  "rangen": 6243,
  "bit@@": 6244,
  "öse": 6245,
  "erinn@@": 6246,
  "intuitive": 6247,
  "kapu@@": 6248,
  "Wirk@@": 6249,
  "11": 6250,
  "abstra@@": 6251,
  "Do@@": 6252,
  "chup": 6253,
  "Mete@@": 6254,
  "hänge": 6255,
  "Tereshkova": 6256,
  "fähi@@": 6257,
  "kind": 6258,
  "museum": 6259,
  "bu@@": 6260,
  "ill@@": 6261,
  "Kazu@@": 6262,
  "Gem@@": 6263,
  "Wit@@": 6264,
  "Suzuki": 6265,
  "Col@@": 6266,
  "Mitt@@": 6267,
  "zeh@@": 6268,
  "öf@@": 6269,
  "glei@@": 6270,
  "völkerungs@@": 6271,
  "ends": 6272,
  "Dobro@@": 6273,
  "Paolo": 6274,
  "hnt": 6275,
  "roati@@": 6276,
  "Hol@@": 6277,
  "gerte": 6278,
  "antwor@@": 6279,
  "1499": 6280,
  "hause": 6281,
  "Sam": 6282,
  "ast": 6283,
  "Sarah": 6284,
  "hun@@": 6285,
  "ange": 6286,
  "ladis@@": 6287,
  "ül@@": 6288,
  "Hick": 6289,
  "Grö@@": 6290,
  "dro@@": 6291,
  "San": 6292,
  "stronau@@": 6293,
  "ball@@": 6294,
  "othe@@": 6295,
  "gebra@@": 6296,
  "Mobil@@": 6297,
  "symp@@": 6298,
  "fran@@": 6299,
  "entz@@": 6300,
  "Blu@@": 6301,
  "Obama": 6302,
  "Ira@@": 6303,
  "vagin@@": 6304,
  "Gebraucht@@": 6305,
  "pen": 6306,
  "tor@@": 6307,
  "itar@@": 6308,
  "Hannibal": 6309,
  "ranken": 6310,
  "Iran": 6311,
  "ore": 6312,
  "bur@@": 6313,
  "tom": 6314,
  "ktri@@": 6315,
  "träger": 6316,
  "sted": 6317,
  "Reihen@@": 6318,
  "häu@@": 6319,
  "Kü@@": 6320,
  "sau@@": 6321,
  "ichtigkeit": 6322,
  "jekt": 6323,
  "Sato@@": 6324,
  "enga@@": 6325,
  "beabsich@@": 6326,
  "vieren": 6327,
  "gene": 6328,
  "simu@@": 6329,
  "wandt": 6330,
  "fle@@": 6331,
  "ürze": 6332,
  "epe@@": 6333,
  "absolute": 6334,
  "ets": 6335,
  "zufü@@": 6336,
  "send": 6337,
  "Schrau@@": 6338,
  "alli@@": 6339,
  "wich": 6340,
  "Pluto": 6341,
  "wü@@": 6342,
  "Tombaugh": 6343,
  "Clyde": 6344,
  "gende": 6345,
  "training": 6346,
  "ller": 6347,
  "gestu@@": 6348,
  "dete@@": 6349,
  "Callisto": 6350,
  "Bo@@": 6351,
  "geschla@@": 6352,
  "shel@@": 6353,
  "Bost@@": 6354,
  "üssel": 6355,
  "mittag": 6356,
  "tos@@": 6357,
  "ils": 6358,
  "langwei@@": 6359,
  "Alice": 6360,
  "om": 6361,
  "pl@@": 6362,
  "stens": 6363,
  "Elena": 6364,
  "Selbstmor@@": 6365,
  "ommen": 6366,
  "such@@": 6367,
  "tasie": 6368,
  "Fan@@": 6369,
  "Preis@@": 6370,
  "mus@@": 6371,
  "ō": 6372,
  "hai": 6373,
  "Jones": 6374,
  "identi@@": 6375,
  "kau@@": 6376,
  "rn": 6377,
  "Koizumi": 6378,
  "Ob@@": 6379,
  "super": 6380,
  "stro@@": 6381,
  "normal@@": 6382,
  "Pan@@": 6383,
  "200": 6384,
  "saka": 6385,
  "gres@@": 6386,
  "Nazis": 6387,
  "Führ@@": 6388,
  "fei@@": 6389,
  "Französischle@@": 6390,
  "toff@@": 6391,
  "Erzäh@@": 6392,
  "Coca": 6393,
  "fli@@": 6394,
  "Jah@@": 6395,
  "restaurant": 6396,
  "pion": 6397,
  "Sus@@": 6398,
  "überrasch@@": 6399,
  "ähi@@": 6400,
  "Den@@": 6401,
  "Mathemati@@": 6402,
  "Polygl@@": 6403,
  "matisch": 6404,
  "charis@@": 6405,
  "Connie": 6406,
  "genheit": 6407,
  "Kun@@": 6408,
  "moron": 6409,
  "Fung": 6410,
  "ario": 6411,
  "deckt": 6412,
  "Medi@@": 6413,
  "mati@@": 6414,
  "Magen@@": 6415,
  "86,400": 6416,
  "lear@@": 6417,
  "500,000": 6418,
  "kkie": 6419,
  "digit@@": 6420,
  "wärts": 6421,
  "Produ@@": 6422,
  "pupp@@": 6423,
  "grun@@": 6424,
  "eball@@": 6425,
  "twen@@": 6426,
  "kistan@@": 6427,
  "1914": 6428,
  "onnen": 6429,
  "umte": 6430,
  "xy@@": 6431,
  "arbeiter": 6432,
  "migran@@": 6433,
  "Wahr@@": 6434,
  "schein@@": 6435,
  "Alfred": 6436,
  "bereu@@": 6437,
  "stel@@": 6438,
  "Öster@@": 6439,
  "schied": 6440,
  "ücksich@@": 6441,
  "opf": 6442,
  "Näch@@": 6443,
  "Kobol@@": 6444,
  "lest": 6445,
  "Abend@@": 6446,
  "schmerzen": 6447,
  "rich": 6448,
  "Pfirsichbaeumchen": 6449,
  "serva@@": 6450,
  "ats": 6451,
  "bart": 6452,
  "offen@@": 6453,
  "Shu": 6454,
  "sex@@": 6455,
  "ären": 6456,
  "ordin@@": 6457,
  "Gepä@@": 6458,
  "Wenjin": 6459,
  "önt@@": 6460,
  "flexi@@": 6461,
  "lot": 6462,
  "meldet": 6463,
  "Rick": 6464,
  "rub@@": 6465,
  "Per@@": 6466,
  "sön@@": 6467,
  "Mutter@@": 6468,
  "Stradi@@": 6469,
  "origin@@": 6470,
  "var@@": 6471,
  "tsächlich": 6472,
  "Fri@@": 6473,
  "Regi@@": 6474,
  "änder": 6475,
  "Techni@@": 6476,
  "Engl@@": 6477,
  "Deut@@": 6478,
  "ros@@": 6479,
  "ö": 6480,
  "cocktail": 6481,
  "tschaft": 6482,
  "Sommer@@": 6483,
  "wir@@": 6484,
  "profession@@": 6485,
  "zwi@@": 6486,
  "fon@@": 6487,
  "2015": 6488,
  "iden@@": 6489,
  "gent@@": 6490,
  "ris@@": 6491,
  "king": 6492,
  "klagt": 6493,
  "arti@@": 6494,
  "Mordred": 6495,
  "sache": 6496,
  "Pantheon": 6497,
  "öffnet": 6498,
  "blon@@": 6499,
  "bra@@": 6500,
  "stru@@": 6501,
  "spare": 6502,
  "Schwe@@": 6503,
  "Robert": 6504,
  "analy@@": 6505,
  "jeder@@": 6506,
  "flung": 6507,
  "intelligen@@": 6508,
  "Portugal": 6509,
  "tradition@@": 6510,
  "chite@@": 6511,
  "ktur": 6512,
  "ous@@": 6513,
  "ffee": 6514,
  "Zwe@@": 6515,
  "staurant": 6516,
  "richte": 6517,
  "are@@": 6518,
  "24": 6519,
  "ggesel@@": 6520,
  "SSH": 6521,
  "fit": 6522,
  "Febru@@": 6523,
  "Kli@@": 6524,
  "April": 6525,
  "Prä@@": 6526,
  "Jun@@": 6527,
  "November": 6528,
  "gang": 6529,
  "interpre@@": 6530,
  "mili@@": 6531,
  "getr@@": 6532,
  "Kyoko": 6533,
  "264405": 6534,
  "Tö@@": 6535,
  "Geor@@": 6536,
  "schmutz@@": 6537,
  "arbei@@": 6538,
  "lend": 6539,
  "Schli@@": 6540,
  "Yoda": 6541,
  "gas": 6542,
  "warzen": 6543,
  "Rä@@": 6544,
  "Bus@@": 6545,
  "K": 6546,
  "kraini@@": 6547,
  "Brunswick": 6548,
  "dings": 6549,
  "nachten": 6550,
  "beherr@@": 6551,
  "kaisha": 6552,
  "gering@@": 6553,
  "Argentini@@": 6554,
  "Pay@@": 6555,
  "sych@@": 6556,
  "licherweise": 6557,
  "brech@@": 6558,
  "zieren": 6559,
  "Gorillas": 6560,
  "chtum": 6561,
  "Asi@@": 6562,
  "per@@": 6563,
  "Lu@@": 6564,
  "Präsiden@@": 6565,
  "ath@@": 6566,
  "lauf": 6567,
  "Briefmar@@": 6568,
  "poli@@": 6569,
  "Sussex": 6570,
  "Sü@@": 6571,
  "Gru@@": 6572,
  "ppen@@": 6573,
  "pint": 6574,
  "vie@@": 6575,
  "plö@@": 6576,
  "rank": 6577,
  "empf@@": 6578,
  "übri@@": 6579,
  "Spenser": 6580,
  "Kate": 6581,
  "U.N@@": 6582,
  "Wil@@": 6583,
  "beleidi@@": 6584,
  "Chile": 6585,
  "ess@@": 6586,
  "wenden": 6587,
  "Bloody": 6588,
  "laun@@": 6589,
  "Mess@@": 6590,
  "itze": 6591,
  "hör@@": 6592,
  "Kato": 6593,
  "Danny": 6594,
  "Incitatus": 6595,
  "Caligula": 6596,
  "Schlitt@@": 6597,
  "stland": 6598,
  "klin@@": 6599,
  "Koff@@": 6600,
  "moti@@": 6601,
  "songs": 6602,
  "hem@@": 6603,
  "ih@@": 6604,
  "Lü@@": 6605,
  "nö@@": 6606,
  "von@@": 6607,
  "nachmit@@": 6608,
  "verspä@@": 6609,
  "streng@@": 6610,
  "33": 6611,
  "Städ@@": 6612,
  "Wilder": 6613,
  "dresse": 6614,
  "ttert": 6615,
  "Philipp@@": 6616,
  "twel@@": 6617,
  "lar@@": 6618,
  "Verrä@@": 6619,
  "pera@@": 6620,
  "Skytree": 6621,
  "Markku": 6622,
  "Hideo": 6623,
  "JUMP": 6624,
  "winden": 6625,
  "Ramudu": 6626,
  "Kakogawa": 6627,
  "enheit": 6628,
  "Fran@@": 6629,
  "Appar@@": 6630,
  "fall@@": 6631,
  "Godot": 6632,
  "Beethoven": 6633,
  "quiet@@": 6634,
  "Tem@@": 6635,
  "Lob@@": 6636,
  "annt": 6637,
  "Fris@@": 6638,
  "quit@@": 6639,
  "Lon@@": 6640,
  "richt": 6641,
  "Verletz@@": 6642,
  "verlan@@": 6643,
  "ffe@@": 6644,
  "Nagasaki": 6645,
  "ledi@@": 6646,
  "verg@@": 6647,
  "fru@@": 6648,
  "willens@@": 6649,
  "sh@@": 6650,
  "Mäd@@": 6651,
  "id": 6652,
  "yo": 6653,
  "ckets": 6654,
  "volu@@": 6655,
  "minister": 6656,
  "Yumi": 6657,
  "enlassen": 6658,
  "up": 6659,
  "äte": 6660,
  "scheidet": 6661,
  "wom@@": 6662,
  "rei": 6663,
  "Archä@@": 6664,
  "olo@@": 6665,
  "spir@@": 6666,
  "erk": 6667,
  "Susanna": 6668,
  "Tamaro": 6669,
  "Union": 6670,
  "R": 6671,
  "SS@@": 6672,
  "tags": 6673,
  "laf": 6674,
  "Ze@@": 6675,
  "Hausti@@": 6676,
  "Zigaret@@": 6677,
  "Lionel": 6678,
  "ms": 6679,
  "Entsch@@": 6680,
  "mmen@@": 6681,
  "appt": 6682,
  "Libusza": 6683,
  "rub": 6684,
  "fla@@": 6685,
  "eindru@@": 6686,
  "immt": 6687,
  "ück": 6688,
  "Malaysia": 6689,
  "Dä@@": 6690,
  "corn": 6691,
  "sexy": 6692,
  "Hir@@": 6693,
  "ßen@@": 6694,
  "kulele": 6695,
  "Geschäfts@@": 6696,
  "Peterborough": 6697,
  "gier@@": 6698,
  "cool": 6699,
  "Freddy": 6700,
  "straße": 6701,
  "press@@": 6702,
  "magne@@": 6703,
  "Fr@@": 6704,
  "Blewett": 6705,
  "Messi": 6706,
  "bes": 6707,
  "Japan@@": 6708,
  "Dunk@@": 6709,
  "ersta@@": 6710,
  "tage": 6711,
  "ures": 6712,
  "par@@": 6713,
  "losoph@@": 6714,
  ",@@": 6715,
  "Phi@@": 6716,
  "thi@@": 6717,
  "Simina": 6718,
  "Gu@@": 6719,
  "gnis": 6720,
  "War@@": 6721,
  "site": 6722,
  "Eichhör@@": 6723,
  "ffor@@": 6724,
  "mä@@": 6725,
  "Hi@@": 6726,
  "Kin@@": 6727,
  "Jenny": 6728,
  "Ness": 6729,
  "meh@@": 6730,
  "bl@@": 6731,
  "has@@": 6732,
  "ntnisse": 6733,
  "alphabe@@": 6734,
  "5.@@": 6735,
  "erkäl@@": 6736,
  "pu@@": 6737,
  "ins@@": 6738,
  "anerin": 6739,
  "Franklin": 6740,
  "Laura": 6741,
  "genu@@": 6742,
  "1968": 6743,
  "Oxford": 6744,
  "Spe@@": 6745,
  "Jap@@": 6746,
  "gant": 6747,
  "zau@@": 6748,
  "hr": 6749,
  "alar": 6750,
  "use@@": 6751,
  "unabhängi@@": 6752,
  "hängi@@": 6753,
  "tung@@": 6754,
  "ka": 6755,
  "Blei@@": 6756,
  "ds": 6757,
  "Won": 6758,
  "Disneyland": 6759,
  "unds": 6760,
  "pass": 6761,
  "trigonometri@@": 6762,
  "Puma": 6763,
  "butter": 6764,
  "dn@@": 6765,
  "außen": 6766,
  "ue": 6767,
  "stell@@": 6768,
  "zeiten": 6769,
  "mahl@@": 6770,
  "volle@@": 6771,
  "Ne@@": 6772,
  "gem": 6773,
  "Rudolf": 6774,
  "Adolf": 6775,
  "vali@@": 6776,
  "Adidas": 6777,
  "yball": 6778,
  "atten": 6779,
  "ppen": 6780,
  "letter": 6781,
  "English": 6782,
  "Basic": 6783,
  "Globish": 6784,
  "Engli@@": 6785,
  "ki@@": 6786,
  "Eli@@": 6787,
  "schli@@": 6788,
  "gon": 6789,
  "pal@@": 6790,
  "pr@@": 6791,
  "Gele@@": 6792,
  "angeneh@@": 6793,
  "sitzenden": 6794,
  "Leh@@": 6795,
  "4@@": 6796,
  "Wohn@@": 6797,
  "Offizi@@": 6798,
  "dire@@": 6799,
  "jenige": 6800,
  "mil@@": 6801,
  "Hemingway": 6802,
  "nor@@": 6803,
  "sation": 6804,
  "vili@@": 6805,
  "Mont": 6806,
  "Blanc": 6807,
  "berüh@@": 6808,
  "Mil@@": 6809,
  "56": 6810,
  "1.3": 6811,
  "position": 6812,
  "Sek@@": 6813,
  "2016": 6814,
  "ence": 6815,
  "Stu@@": 6816,
  "Masao": 6817,
  "pai": 6818,
  "58": 6819,
  "Highway": 6820,
  "dien@@": 6821,
  "regi@@": 6822,
  "He@@": 6823,
  "Vol@@": 6824,
  "transpor@@": 6825,
  "Säu@@": 6826,
  "ls": 6827,
  "ver": 6828,
  "benu@@": 6829,
  "wär@@": 6830,
  "Zeitschri@@": 6831,
  "gefühl": 6832,
  "2012": 6833,
  "besi@@": 6834,
  "betes": 6835,
  "244": 6836,
  "Grü@@": 6837,
  "Hausauf@@": 6838,
  "Koalas": 6839,
  "ernä@@": 6840,
  "Ki@@": 6841,
  "kers": 6842,
  "koholi@@": 6843,
  "Bür@@": 6844,
  "lor@@": 6845,
  "öhe": 6846,
  "tbewer@@": 6847,
  "hlung": 6848,
  "radio@@": 6849,
  "abri@@": 6850,
  "plane": 6851,
  "Flö@@": 6852,
  "solo": 6853,
  "Romeo": 6854,
  "Hoff@@": 6855,
  "schließ@@": 6856,
  "Ehe@@": 6857,
  "pel@@": 6858,
  "Sally": 6859,
  "verhaf@@": 6860,
  "transplan@@": 6861,
  "ückt": 6862,
  "mathemati@@": 6863,
  "oba@@": 6864,
  "vit@@": 6865,
  "New@@": 6866,
  "will@@": 6867,
  "gradu@@": 6868,
  "Ogata": 6869,
  "äus@@": 6870,
  "espe@@": 6871,
  "Pati@@": 6872,
  "gle": 6873,
  "Kan@@": 6874,
  "ündi@@": 6875,
  "anen": 6876,
  "illin": 6877,
  "lst": 6878,
  "erzäh@@": 6879,
  "lo": 6880,
  "pro@@": 6881,
  "Guam": 6882,
  "ust": 6883,
  "otos": 6884,
  "eller": 6885,
  "Metho@@": 6886,
  "Andorra": 6887,
  "Elise": 6888,
  "liehen": 6889,
  "7@@": 6890,
  "flei@@": 6891,
  "akzep@@": 6892,
  "versu@@": 6893,
  "Gebäu@@": 6894,
  "schaf@@": 6895,
  "pt": 6896,
  "Afghanistan": 6897,
  "ignor@@": 6898,
  "jah@@": 6899,
  "ologi@@": 6900,
  "Instit@@": 6901,
  "gül@@": 6902,
  "1920": 6903,
  "ücke": 6904,
  "alkoholi@@": 6905,
  "tate": 6906,
  "ade": 6907,
  "Tallinn": 6908,
  "Fleder@@": 6909,
  "fun": 6910,
  "Antigua": 6911,
  "Barbuda": 6912,
  "zess@@": 6913,
  "deutsch@@": 6914,
  "tioniert": 6915,
  "zäh@@": 6916,
  "eits@@": 6917,
  "1940": 6918,
  "zun@@": 6919,
  "1000": 6920,
  "Belie@@": 6921,
  "stein": 6922,
  "laustropho@@": 6923,
  "ftlich": 6924,
  "schri@@": 6925,
  "achtzeh@@": 6926,
  "timist": 6927,
  "1492": 6928,
  "umbus": 6929,
  "Jan": 6930,
  "spräche": 6931,
  "pas": 6932,
  "Fau@@": 6933,
  "brie@@": 6934,
  "Geldautom@@": 6935,
  "überra@@": 6936,
  "blonde": 6937,
  "platin@@": 6938,
  "21": 6939,
  "Gemü@@": 6940,
  "Gefän@@": 6941,
  "Tanaka": 6942,
  "Kä@@": 6943,
  "spä@@": 6944,
  "tsche": 6945,
  "Fremd@@": 6946,
  "petent": 6947,
  "123": 6948,
  "Weish@@": 6949,
  "locker": 6950,
  "ession": 6951,
  "Roy": 6952,
  "wirkungen": 6953,
  "vas@@": 6954,
  "Erschein@@": 6955,
  "Profes@@": 6956,
  "Mahl@@": 6957,
  "lü@@": 6958,
  "1863": 6959,
  "schaff@@": 6960,
  "frontation": 6961,
  "provo@@": 6962,
  "minu@@": 6963,
  "pas@@": 6964,
  "bad": 6965,
  "dine": 6966,
  "lon@@": 6967,
  "under": 6968,
  "belan@@": 6969,
  "dom@@": 6970,
  "rat": 6971,
  "Ele@@": 6972,
  "schnei@@": 6973,
  "enster": 6974,
  "repar@@": 6975,
  "ückte": 6976,
  "Schrei@@": 6977,
  "pfl@@": 6978,
  "500": 6979,
  "Cholera": 6980,
  "Or@@": 6981,
  "app": 6982,
  "Le": 6983,
  "Cannes": 6984,
  "Carlton": 6985,
  "bracht": 6986,
  "sste": 6987,
  "Urumqi": 6988,
  "geteilt": 6989,
  "wei": 6990,
  "°": 6991,
  "tennis": 6992,
  "ggler": 6993,
  "spor@@": 6994,
  "rasi@@": 6995,
  "ungszimmer": 6996,
  "Besprech@@": 6997,
  "Pole": 6998,
  "Zamenhof": 6999,
  "Lazarus": 7000,
  "mein@@": 7001,
  "stern": 7002,
  "Din@@": 7003,
  "osau@@": 7004,
  "vis@@": 7005,
  "dauer@@": 7006,
  "alien": 7007,
  "aime": 7008,
  "Mur": 7009,
  "Neben@@": 7010,
  "Alfa": 7011,
  "Freund@@": 7012,
  "fel": 7013,
  "vertr@@": 7014,
  "füllt": 7015,
  "Mari@@": 7016,
  "Sawada": 7017,
  "bere@@": 7018,
  "Existen@@": 7019,
  "stage": 7020,
  "ept": 7021,
  "Steu@@": 7022,
  "Mohand": 7023,
  "druck": 7024,
  "Hawking": 7025,
  "jolie": 7026,
  "jolly": 7027,
  "losen@@": 7028,
  "jo@@": 7029,
  "Angli@@": 7030,
  "eingehen": 7031,
  "90@@": 7032,
  "anischen": 7033,
  "sak@@": 7034,
  "user": 7035,
  "Ret@@": 7036,
  "bren@@": 7037,
  "schwester": 7038,
  "Zwillings@@": 7039,
  "künst@@": 7040,
  "1957": 7041,
  "progra@@": 7042,
  "mittel@@": 7043,
  "allergi@@": 7044,
  "weis": 7045,
  "iPhone": 7046,
  "klo@@": 7047,
  "geni@@": 7048,
  "gers": 7049,
  "rigi@@": 7050,
  "nit@@": 7051,
  "gener@@": 7052,
  "ator": 7053,
  "winner": 7054,
  "wählt": 7055,
  "Vo@@": 7056,
  "terbuch": 7057,
  "glück@@": 7058,
  "Blöd@@": 7059,
  "Luft@@": 7060,
  "Ziel@@": 7061,
  "perfe@@": 7062,
  "plan@@": 7063,
  "korrigi@@": 7064,
  "stem": 7065,
  "veröffent@@": 7066,
  "unfall": 7067,
  "luck": 7068,
  "Wissen@@": 7069,
  "dri@@": 7070,
  "mah@@": 7071,
  "öffel": 7072,
  "nuggets": 7073,
  "Sputni@@": 7074,
  "Korol@@": 7075,
  "gelangwei@@": 7076,
  "ufen": 7077,
  "Arika": 7078,
  "Roger": 7079,
  "nummer": 7080,
  "1003": 7081,
  "Zäh@@": 7082,
  "zö@@": 7083,
  "lang@@": 7084,
  "fotografi@@": 7085,
  "ph@@": 7086,
  "1999": 7087,
  "Marcy": 7088,
  "Butler": 7089,
  "Don@@": 7090,
  "Män@@": 7091,
  "immel": 7092,
  "Upsilon": 7093,
  "Andromedae": 7094,
  "unreali@@": 7095,
  "schriften": 7096,
  "Bürger@@": 7097,
  "tie": 7098,
  "telefon": 7099,
  "bedro@@": 7100,
  "gramm": 7101,
  "dal": 7102,
  "Kore@@": 7103,
  "Nonon": 7104,
  "ärger@@": 7105,
  "800": 7106,
  "Okrent": 7107,
  "woll@@": 7108,
  "hinweg@@": 7109,
  "Marley": 7110,
  "dy@@": 7111,
  "tran@@": 7112,
  "Feng": 7113,
  "Lei": 7114,
  "uncool": 7115,
  "blick": 7116,
  "King": 7117,
  "Stephen": 7118,
  "völk@@": 7119,
  "Nara": 7120,
  "beson@@": 7121,
  "Glei@@": 7122,
  "quali@@": 7123,
  "view": 7124,
  "sing": 7125,
  "kehr@@": 7126,
  "kitz@@": 7127,
  "Iri@@": 7128,
  "Wör@@": 7129,
  "zin@@": 7130,
  "Sascha": 7131,
  "erei": 7132,
  "chi@@": 7133,
  "häl@@": 7134,
  "201@@": 7135,
  "irgen@@": 7136,
  "heil@@": 7137,
  "visi@@": 7138,
  "89": 7139,
  "inea": 7140,
  "Französi@@": 7141,
  "stur@@": 7142,
  "ragende": 7143,
  "llt": 7144,
  "gri@@": 7145,
  "einfa@@": 7146,
  "schuldi@@": 7147,
  "prom@@": 7148,
  "38": 7149,
  "frau": 7150,
  "stet": 7151,
  "ah@@": 7152,
  "Mas@@": 7153,
  "tru@@": 7154,
  "schlossen": 7155,
  "nah@@": 7156,
  "old": 7157,
  "teg@@": 7158,
  "nophob@@": 7159,
  "Ara@@": 7160,
  "chteten": 7161,
  "name": 7162,
  "Zezo": 7163,
  "stig": 7164,
  "ori": 7165,
  "ā@@": 7166,
  "Rech@@": 7167,
  "eind": 7168,
  "ehren@@": 7169,
  "rela@@": 7170,
  "tslos": 7171,
  "rücksich@@": 7172,
  "kön@@": 7173,
  "Schick@@": 7174,
  "iron@@": 7175,
  "ari@@": 7176,
  "liter@@": 7177,
  "gewiss@@": 7178,
  "ält": 7179,
  "even@@": 7180,
  "NASA": 7181,
  "freu@@": 7182,
  "pie": 7183,
  "dcasts": 7184,
  "p": 7185,
  "iden": 7186,
  "Mis@@": 7187,
  "isi@@": 7188,
  "ildkrö@@": 7189,
  "Leben@@": 7190,
  "ität": 7191,
  "trum": 7192,
  "ple@@": 7193,
  "130": 7194,
  "abin@@": 7195,
  "ister": 7196,
  "Chopin": 7197,
  "Kompli@@": 7198,
  "verständnis": 7199,
  "Peter": 7200,
  "canc@@": 7201,
  "fu@@": 7202,
  "klein@@": 7203,
  "3@@": 7204,
  "2@@": 7205,
  "überzeu@@": 7206,
  "geben@@": 7207,
  "Sol@@": 7208,
  "liegen@@": 7209,
  "boden": 7210,
  "tons": 7211,
  "pres@@": 7212,
  "chmal": 7213,
  "izi@@": 7214,
  "ton": 7215,
  "semidefin@@": 7216,
  "matrix": 7217,
  "Diag@@": 7218,
  "politi@@": 7219,
  "schre@@": 7220,
  "nie@@": 7221,
  "tier": 7222,
  "arsen@@": 7223,
  "Schau@@": 7224,
  "let": 7225,
  "kra@@": 7226,
  "Glasscher@@": 7227,
  "Rapunzel": 7228,
  "4": 7229,
  "flation": 7230,
  "werken": 7231,
  "opard": 7232,
  "1804": 7233,
  "leman": 7234,
  "Haiti": 7235,
  "album": 7236,
  "sprechend": 7237,
  "indis@@": 7238,
  "Phan@@": 7239,
  "Ricardo": 7240,
  "Erfa@@": 7241,
  "Ange@@": 7242,
  "Fle@@": 7243,
  "spe@@": 7244,
  "Tor@@": 7245,
  "Yamashita": 7246,
  "asp@@": 7247,
  "offer": 7248,
  "uni@@": 7249,
  "art@@": 7250,
  "Prü@@": 7251,
  "Dan@@": 7252,
  "our": 7253,
  "Erk@@": 7254,
  "fro@@": 7255,
  "amerik@@": 7256,
  "ling": 7257,
  "Nagoya": 7258,
  "enk": 7259,
  "kann@@": 7260,
  "Lö@@": 7261,
  "systems": 7262,
  "Fin@@": 7263,
  "Phobos": 7264,
  "San@@": 7265,
  "hon@@": 7266,
  "sozi@@": 7267,
  "Va@@": 7268,
  "rien": 7269,
  "Komment@@": 7270,
  "Telef@@": 7271,
  "Taver@@": 7272,
  "Chri@@": 7273,
  "gungen": 7274,
  "ure": 7275,
  "Schlau@@": 7276,
  "bab": 7277,
  "etzen": 7278,
  "Spencer": 7279,
  "entde@@": 7280,
  "motten": 7281,
  "kla@@": 7282,
  "tee": 7283,
  "ns": 7284,
  "tasche": 7285,
  "Limburger": 7286,
  "365": 7287,
  "Florida": 7288,
  "ood": 7289,
  "gruppe": 7290,
  "Men@@": 7291,
  "ftig": 7292,
  "Emily": 7293,
  "Kumiko": 7294,
  "rts": 7295,
  "ics": 7296,
  "fliehen": 7297,
  "bre@@": 7298,
  "sicht": 7299,
  "bai@@": 7300,
  "Baku": 7301,
  ")": 7302,
  "(": 7303,
  "scha@@": 7304,
  "rung": 7305,
  "scho@@": 7306,
  "Hilton": 7307,
  "Häus@@": 7308,
  "sprach@@": 7309,
  "ührt": 7310,
  "Übersetz@@": 7311,
  "fort": 7312,
  "dy": 7313,
  "aptop": 7314,
  "Emet": 7315,
  "stest": 7316,
  "wüs@@": 7317,
  "bom@@": 7318,
  "schreibung": 7319,
  "Groß@@": 7320,
  "musi@@": 7321,
  "orden@@": 7322,
  "kö@@": 7323,
  "ghai": 7324,
  "wechsel@@": 7325,
  "nutz@@": 7326,
  "Deimos": 7327,
  "tizen": 7328,
  "Rom@@": 7329,
  "dau@@": 7330,
  "histor@@": 7331,
  "zahl@@": 7332,
  "angri@@": 7333,
  "Mitta@@": 7334,
  "Gorill@@": 7335,
  "nai@@": 7336,
  "stition": 7337,
  "ws": 7338,
  "indu@@": 7339,
  "läne": 7340,
  "No@@": 7341,
  "Muiriel": 7342,
  "Dresden": 7343,
  "ambus@@": 7344,
  "ztes": 7345,
  "stie@@": 7346,
  "wachsen@@": 7347,
  "NumLock": 7348,
  "LED": 7349,
  "Finn@@": 7350,
  "Stau@@": 7351,
  "alax@@": 7352,
  "temp@@": 7353,
  "tem@@": 7354,
  "go": 7355,
  "Em@@": 7356,
  "Sat@@": 7357,
  "ential": 7358,
  "spo@@": 7359,
  "lice": 7360,
  "Meva": 7361,
  "sammelt": 7362,
  "ausseh@@": 7363,
  "wiss": 7364,
  "iete": 7365,
  "kündi@@": 7366,
  "sub@@": 7367,
  "Tan@@": 7368,
  "thin": 7369,
  "otive": 7370,
  "ktiv@@": 7371,
  "ground": 7372,
  "subway": 7373,
  "Mahler": 7374,
  "Lyusya": 7375,
  "hre": 7376,
  "sprä@@": 7377,
  "va@@": 7378,
  "pri@@": 7379,
  "ic": 7380,
  "Exfre@@": 7381,
  "aubt": 7382,
  "but": 7383,
  "gereist": 7384,
  "bi": 7385,
  "gator": 7386,
  "genau@@": 7387,
  "Yann": 7388,
  "boy": 7389,
  "serfolg": 7390,
  "16@@": 7391,
  "Da@@": 7392,
  "nirgen@@": 7393,
  "Gesichtsaus@@": 7394,
  "Mau@@": 7395,
  "Tycho": 7396,
  "Brahe": 7397,
  "zü@@": 7398,
  "Häl@@": 7399,
  "Kön@@": 7400,
  "Bat@@": 7401,
  "sitz@@": 7402,
  "irn": 7403,
  "17@@": 7404,
  "Newton": 7405,
  "Chi@@": 7406,
  "Corrie": 7407,
  "pi@@": 7408,
  "Ga@@": 7409,
  "funda@@": 7410,
  "ket": 7411,
  "tholi@@": 7412,
  "Gali@@": 7413,
  "1632": 7414,
  "Unglück@@": 7415,
  "ries@@": 7416,
  "volution": 7417,
  "po@@": 7418,
  "ga": 7419,
  "gend@@": 7420,
  "blem": 7421,
  "deck@@": 7422,
  "Rel@@": 7423,
  "trolle": 7424,
  "stank": 7425,
  "²": 7426,
  "km": 7427,
  "Dis@@": 7428,
  "läche": 7429,
  "ze@@": 7430,
  "Su": 7431,
  "Pak": 7432,
  "Linda": 7433,
  "Dan": 7434,
  "geschenk": 7435,
  "Durch@@": 7436,
  "ernsth@@": 7437,
  "thes@@": 7438,
  "frühstückt": 7439,
  "brochen": 7440,
  "UN": 7441,
  "kauft": 7442,
  "ehst": 7443,
  "üge": 7444,
  "hie@@": 7445,
  "Mission": 7446,
  "applau@@": 7447,
  "Kartoff@@": 7448,
  "bau@@": 7449,
  "Einstein": 7450,
  "Yo@@": 7451,
  "stä@@": 7452,
  "Ho@@": 7453,
  "Virginia": 7454,
  "gens": 7455,
  "befre@@": 7456,
  "boren": 7457,
  ".30": 7458,
  "stätigen": 7459,
  "Amerik@@": 7460,
  "statue": 7461,
  "prophe@@": 7462,
  "lauten": 7463,
  "verabschie@@": 7464,
  "wöch@@": 7465,
  "que@@": 7466,
  "see@@": 7467,
  "spr@@": 7468,
  "unger": 7469,
  "char@@": 7470,
  "volle": 7471,
  "tsch@@": 7472,
  "Cathy": 7473,
  "iest": 7474,
  "Carlsen": 7475,
  "Magnus": 7476,
  "latt": 7477,
  "Milliar@@": 7478,
  "dor@@": 7479,
  "é@@": 7480,
  "cor@@": 7481,
  "Fort": 7482,
  "Java": 7483,
  "Ono": 7484,
  "ffiti": 7485,
  "deln": 7486,
  "baum": 7487,
  "plant": 7488,
  "Alar@@": 7489,
  "₂": 7490,
  "markt": 7491,
  "absor@@": 7492,
  "terial": 7493,
  "rufst": 7494,
  "run@@": 7495,
  "sequ@@": 7496,
  "Takeshi": 7497,
  "kbar": 7498,
  "mir@@": 7499,
  "aufgere@@": 7500,
  "ks": 7501,
  "Hirayama": 7502,
  "1876": 7503,
  "Okinawa": 7504,
  "besu@@": 7505,
  "psych@@": 7506,
  "enter@@": 7507,
  "Elisa": 7508,
  "ss": 7509,
  "tritt@@": 7510,
  "enttäu@@": 7511,
  "ty@@": 7512,
  "Lauf@@": 7513,
  "ftsteller": 7514,
  "litter@@": 7515,
  "dge": 7516,
  "nony@@": 7517,
  "app@@": 7518,
  "wesenheit": 7519,
  "kontrol@@": 7520,
  "scher@@": 7521,
  "Nor@@": 7522,
  "strateg@@": 7523,
  "Liby@@": 7524,
  "kin@@": 7525,
  "Bacchus": 7526,
  "ball": 7527,
  "American": 7528,
  "tal@@": 7529,
  "schwi@@": 7530,
  "beha@@": 7531,
  "Belgi@@": 7532,
  "Post@@": 7533,
  "änger@@": 7534,
  "Kounosuke": 7535,
  "Sakazaki": 7536,
  "gli@@": 7537,
  "Met@@": 7538,
  "THE": 7539,
  "ALFEE": 7540,
  "erist": 7541,
  "loser": 7542,
  "parti@@": 7543,
  "P": 7544,
  "gelö@@": 7545,
  "Sarajevo": 7546,
  "pet@@": 7547,
  "unterricht": 7548,
  "read": 7549,
  "xe": 7550,
  "ätze": 7551,
  "bank": 7552,
  "tatoeba.org": 7553,
  "McDonald": 7554,
  "Himekusa": 7555,
  "Yuriko": 7556,
  "völli@@": 7557,
  "Nancy": 7558,
  "Wra@@": 7559,
  "est": 7560,
  "Chan@@": 7561,
  "finan@@": 7562,
  "Keiko": 7563,
  "thalten": 7564,
  "hüb@@": 7565,
  "fes@@": 7566,
  "Werner": 7567,
  "1970": 7568,
  "Wo@@": 7569,
  "Risi@@": 7570,
  "euer@@": 7571,
  "etzt": 7572,
  "dates": 7573,
  "Up@@": 7574,
  "Stur@@": 7575,
  "grund": 7576,
  "Großv@@": 7577,
  "fair@@": 7578,
  "Teuto@@": 7579,
  "wein": 7580,
  "of@@": 7581,
  "Timmy": 7582,
  "Maruta": 7583,
  "Musi@@": 7584,
  "Öff@@": 7585,
  "nest": 7586,
  "äre": 7587,
  "Marik@@": 7588,
  "tunnel": 7589,
  "39": 7590,
  "doll@@": 7591,
  "France": 7592,
  "ron": 7593,
  "syn@@": 7594,
  "Nagashim@@": 7595,
  "Herzego@@": 7596,
  "Bos@@": 7597,
  "1992": 7598,
  "unk": 7599,
  "spruch": 7600,
  "samer": 7601,
  "grau@@": 7602,
  "Schwier@@": 7603,
  "mometer": 7604,
  "see": 7605,
  "radi@@": 7606,
  "para@@": 7607,
  "burger": 7608,
  "Dauer@@": 7609,
  "Spani@@": 7610,
  "Lou@@": 7611,
  "ve": 7612,
  "Volapük": 7613,
  "Interlingui@@": 7614,
  "stol@@": 7615,
  "Windows": 7616,
  "yō@@": 7617,
  "lettern": 7618,
  "bieren": 7619,
  "neu@@": 7620,
  "ra": 7621,
  "ine@@": 7622,
  "Lancelot": 7623,
  "auer@@": 7624,
  "blü@@": 7625,
  "mchen": 7626,
  "ehr@@": 7627,
  "iel": 7628,
  "ini@@": 7629,
  "enter": 7630,
  "ffizi@@": 7631,
  "bergen": 7632,
  "yrami@@": 7633,
  "Grant": 7634,
  "BMW": 7635,
  "aggres@@": 7636,
  "Rep@@": 7637,
  "able@@": 7638,
  "dlichen": 7639,
  "eg@@": 7640,
  "2000": 7641,
  "jäh@@": 7642,
  "lungs@@": 7643,
  "füh@@": 7644,
  "then": 7645,
  "opa@@": 7646,
  "flü@@": 7647,
  "ult": 7648,
  "usu@@": 7649,
  "stän@@": 7650,
  "dün@@": 7651,
  "H": 7652,
  "chemi@@": 7653,
  "Kilom@@": 7654,
  "Pol@@": 7655,
  "trin@@": 7656,
  "ffeur": 7657,
  "Paula": 7658,
  "Brandenburg": 7659,
  "Haus@@": 7660,
  "benei@@": 7661,
  "weckt": 7662,
  "modern": 7663,
  "berei@@": 7664,
  "toler@@": 7665,
  "ruhi@@": 7666,
  "Naomi": 7667,
  "Scha@@": 7668,
  "Gre@@": 7669,
  "rangements": 7670,
  "Takahashi": 7671,
  "athon": 7672,
  "int": 7673,
  "raut": 7674,
  "12": 7675,
  "öff@@": 7676,
  "rang": 7677,
  "ängt": 7678,
  "sung": 7679,
  "ption": 7680,
  "waschen": 7681,
  "Mrs.": 7682,
  "Marilla": 7683,
  "Matthew": 7684,
  "brä@@": 7685,
  "bow@@": 7686,
  "storben": 7687,
  "Tatsa@@": 7688,
  "Spezi@@": 7689,
  "ganisation": 7690,
  "sor@@": 7691,
  "2003": 7692,
  "num@@": 7693,
  "Schlie@@": 7694,
  "faul@@": 7695,
  "mas": 7696,
  "fere": 7697,
  "bele@@": 7698,
  "nt@@": 7699,
  "bal@@": 7700,
  "monat@@": 7701,
  "benö@@": 7702,
  "Patricia": 7703,
  "bellen": 7704,
  "Medik@@": 7705,
  "lossen": 7706,
  "chter@@": 7707,
  "miert": 7708,
  "infor@@": 7709,
  "listen": 7710,
  "Mandar@@": 7711,
  "M": 7712,
  "hn": 7713,
  "amin": 7714,
  "Toki": 7715,
  "Pona": 7716,
  "kno@@": 7717,
  "Deutsch@@": 7718,
  "äuß@@": 7719,
  "Balmoral": 7720,
  "Castle": 7721,
  "heits@@": 7722,
  "Gar@@": 7723,
  "sha@@": 7724,
  "uses": 7725,
  "verwir@@": 7726,
  "ildk@@": 7727,
  "nap@@": 7728,
  "form": 7729,
  "Edo": 7730,
  "kümm@@": 7731,
  "Ungeh@@": 7732,
  "auß@@": 7733,
  "ki": 7734,
  "ou@@": 7735,
  "sla@@": 7736,
  "sische": 7737,
  "Dies@@": 7738,
  "Peter@@": 7739,
  "Vide@@": 7740,
  "Dengli@@": 7741,
  "Yokohama": 7742,
  "bus": 7743,
  "5000": 7744,
  "leich": 7745,
  "hyster@@": 7746,
  "Selbstge@@": 7747,
  "tall": 7748,
  "sterte": 7749,
  "Studen@@": 7750,
  "laus": 7751,
  "tho@@": 7752,
  "Erik": 7753,
  "don@@": 7754,
  "Frei@@": 7755,
  "stat@@": 7756,
  "ea@@": 7757,
  "wiegen": 7758,
  "ach": 7759,
  "ratet": 7760,
  "allerg@@": 7761,
  "Super@@": 7762,
  "Mittel@@": 7763
}