{
  "<EOS>": 0,
  "<GO>": 1,
  "<UNK>": 2,
  ".": 3,
  "the": 4,
  "I": 5,
  "you": 6,
  "to": 7,
  "Tom": 8,
  "a": 9,
  "?": 10,
  "is": 11,
  "&apos;t": 12,
  ",": 13,
  "in": 14,
  "that": 15,
  "he": 16,
  "of": 17,
  "it": 18,
  "&apos;s": 19,
  "was": 20,
  "do": 21,
  "and": 22,
  "have": 23,
  "me": 24,
  "Mary": 25,
  "this": 26,
  "for": 27,
  "my": 28,
  "what": 29,
  "are": 30,
  "she": 31,
  "we": 32,
  "don": 33,
  "his": 34,
  "can": 35,
  "on": 36,
  "be": 37,
  "your": 38,
  "not": 39,
  "with": 40,
  "know": 41,
  "at": 42,
  "&apos;m": 43,
  "like": 44,
  "her": 45,
  "want": 46,
  "as": 47,
  "has": 48,
  "there": 49,
  "they": 50,
  "him": 51,
  "how": 52,
  "&quot;": 53,
  "did": 54,
  "about": 55,
  "!": 56,
  "&apos;ll": 57,
  "didn": 58,
  "&apos;re": 59,
  "an": 60,
  "had": 61,
  "will": 62,
  "no": 63,
  "go": 64,
  "by": 65,
  "very": 66,
  "up": 67,
  "were": 68,
  "think": 69,
  "here": 70,
  "from": 71,
  "time": 72,
  "one": 73,
  "&apos;ve": 74,
  "all": 75,
  "out": 76,
  "if": 77,
  "who": 78,
  "get": 79,
  "when": 80,
  "why": 81,
  "but": 82,
  "would": 83,
  "so": 84,
  "told": 85,
  "been": 86,
  "good": 87,
  "doesn": 88,
  "us": 89,
  "tell": 90,
  "said": 91,
  "where": 92,
  "should": 93,
  "could": 94,
  "just": 95,
  "please": 96,
  "than": 97,
  "never": 98,
  "@-@": 99,
  "going": 100,
  "too": 101,
  "now": 102,
  "come": 103,
  "much": 104,
  "more": 105,
  "only": 106,
  "&apos;d": 107,
  "people": 108,
  "really": 109,
  "see": 110,
  "let": 111,
  "help": 112,
  "book": 113,
  "home": 114,
  "something": 115,
  "car": 116,
  "take": 117,
  "room": 118,
  "some": 119,
  "need": 120,
  "money": 121,
  "work": 122,
  "anything": 123,
  "our": 124,
  "doing": 125,
  "am": 126,
  "many": 127,
  "before": 128,
  "got": 129,
  "isn": 130,
  "made": 131,
  "day": 132,
  "say": 133,
  "speak": 134,
  "or": 135,
  "lot": 136,
  "make": 137,
  "John": 138,
  "well": 139,
  "does": 140,
  "life": 141,
  "new": 142,
  "give": 143,
  "today": 144,
  "any": 145,
  "school": 146,
  "way": 147,
  "French": 148,
  "last": 149,
  "love": 150,
  "thought": 151,
  "back": 152,
  "Boston": 153,
  "look": 154,
  "right": 155,
  "man": 156,
  "better": 157,
  "asked": 158,
  "left": 159,
  "long": 160,
  "old": 161,
  "over": 162,
  "still": 163,
  "three": 164,
  "always": 165,
  "eat": 166,
  "father": 167,
  "years": 168,
  "after": 169,
  "two": 170,
  "other": 171,
  "saw": 172,
  "put": 173,
  "house": 174,
  "every": 175,
  "must": 176,
  "done": 177,
  "first": 178,
  "yesterday": 179,
  "ever": 180,
  "these": 181,
  "again": 182,
  "already": 183,
  "wanted": 184,
  "name": 185,
  "friends": 186,
  "English": 187,
  "little": 188,
  "nothing": 189,
  "without": 190,
  "them": 191,
  "sure": 192,
  "went": 193,
  "away": 194,
  "everything": 195,
  "into": 196,
  "down": 197,
  "off": 198,
  "won": 199,
  "their": 200,
  "children": 201,
  "tomorrow": 202,
  "used": 203,
  "mother": 204,
  "talk": 205,
  "which": 206,
  "may": 207,
  "took": 208,
  "believe": 209,
  "year": 210,
  "ask": 211,
  "door": 212,
  "wasn": 213,
  "next": 214,
  "each": 215,
  "ed": 216,
  "often": 217,
  "in@@": 218,
  "night": 219,
  "such": 220,
  "world": 221,
  "came": 222,
  "es": 223,
  "keep": 224,
  "even": 225,
  "soon": 226,
  "best": 227,
  "understand": 228,
  "stop": 229,
  "buy": 230,
  "lost": 231,
  "happy": 232,
  "wants": 233,
  "knows": 234,
  "live": 235,
  "things": 236,
  "stay": 237,
  "remember": 238,
  "because": 239,
  "happened": 240,
  "looking": 241,
  "dog": 242,
  "thing": 243,
  "bought": 244,
  "alone": 245,
  "able": 246,
  "sister": 247,
  "country": 248,
  "mind": 249,
  "call": 250,
  "beautiful": 251,
  "read": 252,
  "play": 253,
  "ing": 254,
  "ted": 255,
  "leave": 256,
  "most": 257,
  "knew": 258,
  "re@@": 259,
  "job": 260,
  "couldn": 261,
  "true": 262,
  "likes": 263,
  "walk": 264,
  "wrong": 265,
  "un@@": 266,
  "died": 267,
  "feel": 268,
  "gave": 269,
  "p@@": 270,
  "says": 271,
  "language": 272,
  "wish": 273,
  "try": 274,
  "great": 275,
  "everyone": 276,
  "ts": 277,
  "reading": 278,
  "parents": 279,
  "boy": 280,
  "called": 281,
  "hard": 282,
  "y": 283,
  "open": 284,
  "met": 285,
  "c@@": 286,
  "cannot": 287,
  "person": 288,
  "red": 289,
  "enough": 290,
  "water": 291,
  "idea": 292,
  "yet": 293,
  "teacher": 294,
  ":": 295,
  "talking": 296,
  "both": 297,
  "fell": 298,
  "cold": 299,
  "write": 300,
  "late": 301,
  "morning": 302,
  "word": 303,
  "bad": 304,
  "use": 305,
  "brother": 306,
  "family": 307,
  "almost": 308,
  "friend": 309,
  "looks": 310,
  "found": 311,
  "young": 312,
  "started": 313,
  "girl": 314,
  "married": 315,
  "since": 316,
  "learn": 317,
  "those": 318,
  "kind": 319,
  "then": 320,
  "find": 321,
  "aren": 322,
  "problem": 323,
  "own": 324,
  "heard": 325,
  "hear": 326,
  "busy": 327,
  "far": 328,
  "matter": 329,
  "big": 330,
  "waiting": 331,
  "anyone": 332,
  "while": 333,
  "Alice": 334,
  "week": 335,
  "woman": 336,
  "seen": 337,
  "nobody": 338,
  "around": 339,
  "picture": 340,
  "tried": 341,
  "&apos;": 342,
  "station": 343,
  "its": 344,
  "few": 345,
  "bed": 346,
  "seems": 347,
  "wouldn": 348,
  "Japanese": 349,
  "answer": 350,
  "yourself": 351,
  "easy": 352,
  "looked": 353,
  "food": 354,
  "light": 355,
  "drink": 356,
  "lives": 357,
  "Japan": 358,
  "letter": 359,
  "hair": 360,
  "getting": 361,
  "listen": 362,
  "through": 363,
  "train": 364,
  "plan": 365,
  "arrived": 366,
  "son": 367,
  "else": 368,
  "together": 369,
  "himself": 370,
  "fast": 371,
  "ate": 372,
  "days": 373,
  "ten": 374,
  "early": 375,
  "party": 376,
  "being": 377,
  "a@@": 378,
  "same": 379,
  "coming": 380,
  "rain": 381,
  "German": 382,
  "child": 383,
  "afraid": 384,
  "place": 385,
  "meeting": 386,
  "sleep": 387,
  "coffee": 388,
  "broke": 389,
  "haven": 390,
  "might": 391,
  "hours": 392,
  "loved": 393,
  "question": 394,
  "small": 395,
  "less": 396,
  "phone": 397,
  "along": 398,
  "e@@": 399,
  "de@@": 400,
  "wife": 401,
  "once": 402,
  "reason": 403,
  "everybody": 404,
  "Australia": 405,
  "death": 406,
  "watch": 407,
  "change": 408,
  "mean": 409,
  "meet": 410,
  "en@@": 411,
  "end": 412,
  "e": 413,
  "hand": 414,
  "tired": 415,
  "dinner": 416,
  "speaks": 417,
  "face": 418,
  "quite": 419,
  "whole": 420,
  "hope": 421,
  "books": 422,
  "accident": 423,
  "anymore": 424,
  "five": 425,
  "fire": 426,
  "bus": 427,
  "s": 428,
  "nice": 429,
  "run": 430,
  "show": 431,
  "known": 432,
  "until": 433,
  "spend": 434,
  "someone": 435,
  "needs": 436,
  "sorry": 437,
  "music": 438,
  "ous": 439,
  "myself": 440,
  "shouldn": 441,
  "usually": 442,
  "important": 443,
  "m@@": 444,
  "sat": 445,
  "under": 446,
  "f@@": 447,
  "favorite": 448,
  "office": 449,
  "taking": 450,
  "cat": 451,
  "eyes": 452,
  "ting": 453,
  "police": 454,
  "kill": 455,
  "care": 456,
  "students": 457,
  "living": 458,
  "helped": 459,
  "ready": 460,
  "lo@@": 461,
  "lived": 462,
  "minutes": 463,
  "story": 464,
  "visit": 465,
  "p": 466,
  "wearing": 467,
  "pay": 468,
  "longer": 469,
  "window": 470,
  "side": 471,
  "table": 472,
  "rich": 473,
  "ds": 474,
  "s@@": 475,
  "o": 476,
  "doctor": 477,
  "turned": 478,
  "talked": 479,
  "month": 480,
  "fun": 481,
  "ti@@": 482,
  "y@@": 483,
  "di@@": 484,
  "tion": 485,
  "trying": 486,
  "possible": 487,
  "saying": 488,
  "watching": 489,
  "heart": 490,
  "crazy": 491,
  "sick": 492,
  "front": 493,
  "playing": 494,
  "another": 495,
  "TV": 496,
  "killed": 497,
  "hot": 498,
  "turn": 499,
  "v@@": 500,
  "pretty": 501,
  "truth": 502,
  "breakfast": 503,
  "th": 504,
  "quickly": 505,
  "making": 506,
  "thirty": 507,
  "makes": 508,
  "class": 509,
  "began": 510,
  "walked": 511,
  "poor": 512,
  "t@@": 513,
  "goes": 514,
  "ve": 515,
  "road": 516,
  "paper": 517,
  "wait": 518,
  "gone": 519,
  "birthday": 520,
  "li@@": 521,
  "sentence": 522,
  "angry": 523,
  "loves": 524,
  "sing": 525,
  "company": 526,
  "shoes": 527,
  "catch": 528,
  "working": 529,
  "health": 530,
  "g@@": 531,
  "air": 532,
  "sense": 533,
  "bring": 534,
  "win": 535,
  "con@@": 536,
  "free": 537,
  "al@@": 538,
  "bo@@": 539,
  "comes": 540,
  "teach": 541,
  "fa@@": 542,
  "number": 543,
  "st": 544,
  "mistakes": 545,
  "kept": 546,
  "ma@@": 547,
  "ly": 548,
  "news": 549,
  "study": 550,
  "decided": 551,
  "street": 552,
  "trip": 553,
  "pass": 554,
  "finally": 555,
  "beer": 556,
  "glad": 557,
  "d@@": 558,
  "tree": 559,
  "advice": 560,
  "completely": 561,
  "ri@@": 562,
  "th@@": 563,
  "lunch": 564,
  "eating": 565,
  "er": 566,
  "maybe": 567,
  "hungry": 568,
  "ch@@": 569,
  "30": 570,
  "Germany": 571,
  "large": 572,
  "move": 573,
  "chance": 574,
  "dead": 575,
  "student": 576,
  "al": 577,
  "game": 578,
  "four": 579,
  "pa@@": 580,
  "si@@": 581,
  "eye": 582,
  "ac@@": 583,
  "having": 584,
  "an@@": 585,
  "hurt": 586,
  "words": 587,
  "probably": 588,
  "drive": 589,
  "as@@": 590,
  "finished": 591,
  "wonder": 592,
  "hour": 593,
  "homework": 594,
  "learned": 595,
  "seem": 596,
  "trust": 597,
  "trouble": 598,
  "ra@@": 599,
  "difficult": 600,
  "clothes": 601,
  "ta@@": 602,
  "dream": 603,
  "forget": 604,
  "became": 605,
  "se@@": 606,
  "animals": 607,
  "worth": 608,
  ";": 609,
  "b@@": 610,
  "be@@": 611,
  "part": 612,
  "la@@": 613,
  "dress": 614,
  "ago": 615,
  "ves": 616,
  "past": 617,
  "spent": 618,
  "moment": 619,
  "age": 620,
  "close": 621,
  "seemed": 622,
  "le@@": 623,
  "different": 624,
  "thank": 625,
  "hands": 626,
  "key": 627,
  "ct": 628,
  "happen": 629,
  "twenty": 630,
  "ded": 631,
  "ro@@": 632,
  "ar@@": 633,
  "king": 634,
  "wine": 635,
  "ck": 636,
  "hasn": 637,
  "behind": 638,
  "men": 639,
  "movie": 640,
  "i@@": 641,
  "common": 642,
  "caught": 643,
  "ice": 644,
  "ran": 645,
  "swim": 646,
  "six": 647,
  "dangerous": 648,
  "im@@": 649,
  "high": 650,
  "te": 651,
  "suit": 652,
  "bag": 653,
  "sometimes": 654,
  "either": 655,
  "felt": 656,
  "strong": 657,
  "questions": 658,
  "swimming": 659,
  "dollars": 660,
  "across": 661,
  "cu@@": 662,
  "stupid": 663,
  "times": 664,
  "co@@": 665,
  "boys": 666,
  "excuse": 667,
  "k": 668,
  "mine": 669,
  "languages": 670,
  "present": 671,
  "wrote": 672,
  "stand": 673,
  "deal": 674,
  "park": 675,
  "prefer": 676,
  "fish": 677,
  "case": 678,
  "daughter": 679,
  "others": 680,
  "snow": 681,
  "pen": 682,
  "piano": 683,
  "changed": 684,
  "ought": 685,
  "ca@@": 686,
  "store": 687,
  "2": 688,
  "asleep": 689,
  "full": 690,
  "u@@": 691,
  "earth": 692,
  "exactly": 693,
  "ill": 694,
  "st@@": 695,
  "kitchen": 696,
  "guess": 697,
  "Mr.": 698,
  "paid": 699,
  "become": 700,
  "also": 701,
  "whose": 702,
  "test": 703,
  "ad@@": 704,
  "tra@@": 705,
  "works": 706,
  "surprised": 707,
  "glass": 708,
  "grandfather": 709,
  "between": 710,
  "outside": 711,
  "course": 712,
  "whether": 713,
  "interesting": 714,
  "de": 715,
  "women": 716,
  "point": 717,
  "stopped": 718,
  "decision": 719,
  "order": 720,
  "cake": 721,
  "head": 722,
  "weather": 723,
  "expect": 724,
  "though": 725,
  "ant": 726,
  "cted": 727,
  "start": 728,
  "college": 729,
  "closed": 730,
  "mo@@": 731,
  "correct": 732,
  "cut": 733,
  "com@@": 734,
  "near": 735,
  "sell": 736,
  "city": 737,
  "takes": 738,
  "bit": 739,
  "older": 740,
  "ty": 741,
  "Mr": 742,
  "agree": 743,
  "war": 744,
  "patient": 745,
  "t": 746,
  "tonight": 747,
  "broken": 748,
  "business": 749,
  "explain": 750,
  "se": 751,
  "horse": 752,
  "laughing": 753,
  "set": 754,
  "ers": 755,
  "bicycle": 756,
  "invited": 757,
  "box": 758,
  "hat": 759,
  "o@@": 760,
  "baby": 761,
  "certain": 762,
  "heavy": 763,
  "interested": 764,
  "America": 765,
  "price": 766,
  "blue": 767,
  "worked": 768,
  "kissed": 769,
  "God": 770,
  "sh@@": 771,
  "Bob": 772,
  "S@@": 773,
  "careful": 774,
  "tennis": 775,
  "camera": 776,
  "ction": 777,
  "weren": 778,
  "town": 779,
  "address": 780,
  "ated": 781,
  "guys": 782,
  "ce": 783,
  "ter": 784,
  "spoke": 785,
  "joke": 786,
  "ck@@": 787,
  "w@@": 788,
  "girls": 789,
  "ks": 790,
  "afternoon": 791,
  "hotel": 792,
  "yours": 793,
  "problems": 794,
  "expensive": 795,
  "experience": 796,
  "sun": 797,
  "des": 798,
  "ex@@": 799,
  "against": 800,
  "river": 801,
  "eaten": 802,
  "che@@": 803,
  "traffic": 804,
  "ans": 805,
  "sign": 806,
  "stood": 807,
  "tions": 808,
  "sent": 809,
  "promise": 810,
  "sentences": 811,
  "bread": 812,
  "mad": 813,
  "die": 814,
  "wall": 815,
  "herself": 816,
  "painted": 817,
  "dogs": 818,
  "ga@@": 819,
  "forgot": 820,
  "rather": 821,
  "ely": 822,
  "sta@@": 823,
  "send": 824,
  "tall": 825,
  "shall": 826,
  "solve": 827,
  "pick": 828,
  "blood": 829,
  "lose": 830,
  "listening": 831,
  "bill": 832,
  "speaking": 833,
  "per@@": 834,
  "human": 835,
  "les": 836,
  "song": 837,
  "apples": 838,
  "power": 839,
  "voice": 840,
  "vi@@": 841,
  "guy": 842,
  "pro@@": 843,
  "telephone": 844,
  "low": 845,
  "car@@": 846,
  "cry": 847,
  "dictionary": 848,
  "beginning": 849,
  "opinion": 850,
  "computer": 851,
  "floor": 852,
  "visited": 853,
  "supposed": 854,
  "taught": 855,
  "d": 856,
  "smile": 857,
  "gets": 858,
  "sit": 859,
  "kids": 860,
  "hate": 861,
  "studying": 862,
  "sa@@": 863,
  "message": 864,
  "moved": 865,
  "later": 866,
  "accept": 867,
  "blind": 868,
  "wash": 869,
  "brought": 870,
  "l": 871,
  "coat": 872,
  "over@@": 873,
  "leg": 874,
  "happens": 875,
  "garden": 876,
  "fall": 877,
  "flowers": 878,
  "passed": 879,
  "written": 880,
  "ally": 881,
  "brothers": 882,
  "ist": 883,
  "touch": 884,
  "ab@@": 885,
  "hurry": 886,
  "ba@@": 887,
  "enjoy": 888,
  "somewhere": 889,
  "perhaps": 890,
  "least": 891,
  "hospital": 892,
  "thanks": 893,
  "lie": 894,
  "C@@": 895,
  "pre@@": 896,
  "ended": 897,
  "famous": 898,
  "m": 899,
  "smoking": 900,
  "ver@@": 901,
  "giving": 902,
  "played": 903,
  "grass": 904,
  "bored": 905,
  "whatever": 906,
  "beach": 907,
  "ap@@": 908,
  "evening": 909,
  "American": 910,
  "ding": 911,
  "c": 912,
  "rest": 913,
  "owns": 914,
  "quit": 915,
  "ne@@": 916,
  "arrested": 917,
  "needed": 918,
  "te@@": 919,
  "feeling": 920,
  "na@@": 921,
  "travel": 922,
  "n@@": 923,
  "respect": 924,
  "cra@@": 925,
  "husband": 926,
  "scared": 927,
  "ship": 928,
  "ideas": 929,
  "worried": 930,
  "apple": 931,
  "k@@": 932,
  "means": 933,
  "eats": 934,
  "mu@@": 935,
  "Chinese": 936,
  "fear": 937,
  "cook": 938,
  "w": 939,
  "cards": 940,
  "France": 941,
  "absolutely": 942,
  "OK": 943,
  "Christmas": 944,
  "shop": 945,
  "at@@": 946,
  "received": 947,
  "weak": 948,
  "j@@": 949,
  "inside": 950,
  "el@@": 951,
  "anybody": 952,
  "telling": 953,
  "10": 954,
  "sitting": 955,
  "medicine": 956,
  "half": 957,
  "slept": 958,
  "ring": 959,
  "fact": 960,
  "wi@@": 961,
  "following": 962,
  "rate": 963,
  "promised": 964,
  "ou@@": 965,
  "given": 966,
  "Spanish": 967,
  "ary": 968,
  "ble": 969,
  "excellent": 970,
  "several": 971,
  "r@@": 972,
  "doubt": 973,
  "simple": 974,
  "follow": 975,
  "er@@": 976,
  "discuss": 977,
  "gra@@": 978,
  "likely": 979,
  "writing": 980,
  "kiss": 981,
  "miss": 982,
  "sp@@": 983,
  "pe@@": 984,
  "minute": 985,
  "meat": 986,
  "president": 987,
  "difference": 988,
  "learning": 989,
  "squirrel": 990,
  "po@@": 991,
  "tea": 992,
  "during": 993,
  "vacation": 994,
  "restaurant": 995,
  "slowly": 996,
  "secret": 997,
  "answered": 998,
  "top": 999,
  "for@@": 1000,
  "milk": 1001,
  "library": 1002,
  "liked": 1003,
  "white": 1004,
  "themselves": 1005,
  "born": 1006,
  "strange": 1007,
  "loud": 1008,
  "named": 1009,
  "ons": 1010,
  "glasses": 1011,
  "tears": 1012,
  "map": 1013,
  "worry": 1014,
  "mar@@": 1015,
  "led": 1016,
  "wear": 1017,
  "exam": 1018,
  "pi@@": 1019,
  "tri@@": 1020,
  "mood": 1021,
  "check": 1022,
  "gift": 1023,
  "desk": 1024,
  "foot": 1025,
  "carefully": 1026,
  "offer": 1027,
  "Yes": 1028,
  "stic": 1029,
  "feet": 1030,
  "New": 1031,
  "ru@@": 1032,
  "h": 1033,
  "threw": 1034,
  "shower": 1035,
  "miles": 1036,
  "innocent": 1037,
  "crime": 1038,
  "fight": 1039,
  "bar@@": 1040,
  "ging": 1041,
  "yellow": 1042,
  "stayed": 1043,
  "als": 1044,
  "thinks": 1045,
  "plane": 1046,
  "ter@@": 1047,
  "gs": 1048,
  "ci@@": 1049,
  "alive": 1050,
  "no@@": 1051,
  "begin": 1052,
  "airport": 1053,
  "ctive": 1054,
  "or@@": 1055,
  "fruit": 1056,
  "mistake": 1057,
  "lying": 1058,
  "fifty": 1059,
  "October": 1060,
  "bird": 1061,
  "ved": 1062,
  "to@@": 1063,
  "l@@": 1064,
  "par@@": 1065,
  "silent": 1066,
  "allowed": 1067,
  "within": 1068,
  "satisfied": 1069,
  "sleeping": 1070,
  "tive": 1071,
  "saved": 1072,
  "noticed": 1073,
  "thousand": 1074,
  "guitar": 1075,
  "count": 1076,
  "newspaper": 1077,
  "second": 1078,
  "forward": 1079,
  "land": 1080,
  "yen": 1081,
  "suddenly": 1082,
  "fit": 1083,
  "Tatoeba": 1084,
  "spoken": 1085,
  "cri@@": 1086,
  "Sami": 1087,
  "anyway": 1088,
  "talks": 1089,
  "so@@": 1090,
  "ces": 1091,
  "winter": 1092,
  "sky": 1093,
  "da@@": 1094,
  "future": 1095,
  "jealous": 1096,
  "according": 1097,
  "birds": 1098,
  "wn": 1099,
  "...": 1100,
  "diary": 1101,
  "ked": 1102,
  "missed": 1103,
  "expecting": 1104,
  "cream": 1105,
  "proud": 1106,
  "success": 1107,
  "smoke": 1108,
  "building": 1109,
  "quiet": 1110,
  "waited": 1111,
  "choice": 1112,
  "boyfriend": 1113,
  "short": 1114,
  "per": 1115,
  "trees": 1116,
  "crossed": 1117,
  "worrying": 1118,
  "dis@@": 1119,
  "ol@@": 1120,
  "King": 1121,
  "stri@@": 1122,
  "self": 1123,
  "mp": 1124,
  "produ@@": 1125,
  "okay": 1126,
  "danger": 1127,
  "Jane": 1128,
  "material": 1129,
  "space": 1130,
  "art": 1131,
  "stolen": 1132,
  "cost": 1133,
  "pp@@": 1134,
  "cts": 1135,
  "prices": 1136,
  "drinks": 1137,
  "cy": 1138,
  "crying": 1139,
  "finish": 1140,
  "cheaper": 1141,
  "ws": 1142,
  "ver": 1143,
  "ties": 1144,
  "natural": 1145,
  "line": 1146,
  "vote": 1147,
  "ine": 1148,
  "Monday": 1149,
  "taller": 1150,
  "plans": 1151,
  "account": 1152,
  "h@@": 1153,
  "dy": 1154,
  "result": 1155,
  "grew": 1156,
  "wise": 1157,
  "girlfriend": 1158,
  "abroad": 1159,
  "ears": 1160,
  "ined": 1161,
  "ugly": 1162,
  "ia": 1163,
  "artist": 1164,
  "ents": 1165,
  "gh@@": 1166,
  "standing": 1167,
  "&apos;clock": 1168,
  "dirty": 1169,
  "fly": 1170,
  "lots": 1171,
  "hello": 1172,
  "shut": 1173,
  "responsible": 1174,
  "ched": 1175,
  "deserve": 1176,
  "baseball": 1177,
  "ha@@": 1178,
  "col@@": 1179,
  "chess": 1180,
  "mail": 1181,
  "fool": 1182,
  "ic": 1183,
  "noise": 1184,
  "eggs": 1185,
  "driving": 1186,
  "usual": 1187,
  "running": 1188,
  "cor@@": 1189,
  "locked": 1190,
  "grow": 1191,
  "uncle": 1192,
  "law": 1193,
  "serious": 1194,
  "woke": 1195,
  "forgotten": 1196,
  "soccer": 1197,
  "showed": 1198,
  "war@@": 1199,
  "film": 1200,
  "ground": 1201,
  "qu@@": 1202,
  "ni@@": 1203,
  "ess": 1204,
  "failed": 1205,
  "dra@@": 1206,
  "clean": 1207,
  "neither": 1208,
  "stick": 1209,
  "million": 1210,
  "ashamed": 1211,
  "feelings": 1212,
  "bear": 1213,
  "twice": 1214,
  "university": 1215,
  "fully": 1216,
  "dreams": 1217,
  "seat": 1218,
  "Kyoto": 1219,
  "owe": 1220,
  "thinking": 1221,
  "flying": 1222,
  "mi@@": 1223,
  "singer": 1224,
  "mountain": 1225,
  "cars": 1226,
  "depends": 1227,
  "seriously": 1228,
  "Tokyo": 1229,
  "ahead": 1230,
  "Oh": 1231,
  "forever": 1232,
  "drank": 1233,
  "someday": 1234,
  "available": 1235,
  "marry": 1236,
  "rea@@": 1237,
  "il": 1238,
  "cked": 1239,
  "spite": 1240,
  "teachers": 1241,
  "village": 1242,
  "Europe": 1243,
  "dance": 1244,
  "drinking": 1245,
  "paint": 1246,
  "ways": 1247,
  "Americans": 1248,
  "third": 1249,
  "M@@": 1250,
  "act": 1251,
  "socks": 1252,
  "shirt": 1253,
  "planning": 1254,
  "der": 1255,
  "easily": 1256,
  "letters": 1257,
  "enjoyed": 1258,
  "zed": 1259,
  "notice": 1260,
  "wallet": 1261,
  "figure": 1262,
  "lied": 1263,
  "man@@": 1264,
  "percent": 1265,
  "umbrella": 1266,
  "ping": 1267,
  "couple": 1268,
  "faster": 1269,
  "foreign": 1270,
  "du@@": 1271,
  "ence": 1272,
  "fired": 1273,
  "ance": 1274,
  "rarely": 1275,
  "United": 1276,
  "trusted": 1277,
  "hide": 1278,
  "hardly": 1279,
  "anywhere": 1280,
  "system": 1281,
  "drug": 1282,
  "op@@": 1283,
  "Paris": 1284,
  "ge@@": 1285,
  "inter@@": 1286,
  "tly": 1287,
  "ns": 1288,
  "filled": 1289,
  "the@@": 1290,
  "ran@@": 1291,
  "suggested": 1292,
  "above": 1293,
  "realize": 1294,
  "intend": 1295,
  "leaving": 1296,
  "arrive": 1297,
  "China": 1298,
  "os@@": 1299,
  "photo": 1300,
  "knife": 1301,
  "bl@@": 1302,
  "upset": 1303,
  "jumped": 1304,
  "sha@@": 1305,
  "hundred": 1306,
  "planet": 1307,
  "fied": 1308,
  "wears": 1309,
  "places": 1310,
  "explained": 1311,
  "fine": 1312,
  "ful": 1313,
  "wor@@": 1314,
  "moon": 1315,
  "expected": 1316,
  "healthy": 1317,
  "rec@@": 1318,
  "reminds": 1319,
  "solution": 1320,
  "r": 1321,
  "project": 1322,
  "weekend": 1323,
  "rose": 1324,
  "raining": 1325,
  "awake": 1326,
  "star@@": 1327,
  "hadn": 1328,
  "object": 1329,
  "gas": 1330,
  "movies": 1331,
  "electricity": 1332,
  "cks": 1333,
  "education": 1334,
  "pain": 1335,
  "list": 1336,
  "yed": 1337,
  "cup": 1338,
  "watched": 1339,
  "spring": 1340,
  "raise": 1341,
  "peace": 1342,
  "deep": 1343,
  "itself": 1344,
  "climbed": 1345,
  "record": 1346,
  "crowd": 1347,
  "bi@@": 1348,
  "York": 1349,
  "des@@": 1350,
  "thy": 1351,
  "pictures": 1352,
  "sports": 1353,
  "sted": 1354,
  "fin@@": 1355,
  "thief": 1356,
  "bra@@": 1357,
  "le": 1358,
  "sti@@": 1359,
  "x@@": 1360,
  "afford": 1361,
  "dark": 1362,
  "imagine": 1363,
  "Unfortunately": 1364,
  "es@@": 1365,
  "O@@": 1366,
  "mouth": 1367,
  "planned": 1368,
  "fu@@": 1369,
  "concert": 1370,
  "cal": 1371,
  "decide": 1372,
  "younger": 1373,
  "cen@@": 1374,
  "behavior": 1375,
  "ob@@": 1376,
  "lake": 1377,
  "sound": 1378,
  "lock": 1379,
  "wake": 1380,
  "ity": 1381,
  "boring": 1382,
  "ation": 1383,
  "handsome": 1384,
  "reach": 1385,
  "impossible": 1386,
  "memory": 1387,
  "welcome": 1388,
  "history": 1389,
  "gi@@": 1390,
  "escape": 1391,
  "tie": 1392,
  "plays": 1393,
  "built": 1394,
  "ho@@": 1395,
  "pra@@": 1396,
  "piece": 1397,
  "cats": 1398,
  "bottom": 1399,
  "prepared": 1400,
  "ch": 1401,
  "pos@@": 1402,
  "apologize": 1403,
  "ea@@": 1404,
  "on@@": 1405,
  "officer": 1406,
  "thirsty": 1407,
  "ticket": 1408,
  "sounds": 1409,
  "staying": 1410,
  "lights": 1411,
  "fallen": 1412,
  "stories": 1413,
  "talent": 1414,
  "Li@@": 1415,
  "asking": 1416,
  "grandmother": 1417,
  "ently": 1418,
  "pri@@": 1419,
  "daughters": 1420,
  "slammed": 1421,
  "v": 1422,
  "conversation": 1423,
  "harder": 1424,
  "summer": 1425,
  "green": 1426,
  "wh@@": 1427,
  "ban@@": 1428,
  "buried": 1429,
  "straight": 1430,
  "rude": 1431,
  "White": 1432,
  "immediately": 1433,
  "teaching": 1434,
  "examination": 1435,
  "char@@": 1436,
  "ty@@": 1437,
  "real": 1438,
  "legs": 1439,
  "instead": 1440,
  "report": 1441,
  "apartment": 1442,
  "ins": 1443,
  "force": 1444,
  "em@@": 1445,
  "necessary": 1446,
  "dancing": 1447,
  "excited": 1448,
  "followed": 1449,
  "we@@": 1450,
  "keeping": 1451,
  "ological": 1452,
  "do@@": 1453,
  "parked": 1454,
  "weeks": 1455,
  "fil@@": 1456,
  "popular": 1457,
  "ses": 1458,
  "ker": 1459,
  "den@@": 1460,
  "wedding": 1461,
  "badly": 1462,
  "empty": 1463,
  "Brazil": 1464,
  "sin@@": 1465,
  "ddle": 1466,
  "fi@@": 1467,
  "8": 1468,
  "lesson": 1469,
  "Ken": 1470,
  "sto@@": 1471,
  "explanation": 1472,
  "desperate": 1473,
  "alcoholic": 1474,
  "post@@": 1475,
  "ke@@": 1476,
  "actually": 1477,
  "washed": 1478,
  "introduced": 1479,
  "nuts": 1480,
  "shy": 1481,
  "tu@@": 1482,
  "meters": 1483,
  "stole": 1484,
  "dad": 1485,
  "Italian": 1486,
  "solar": 1487,
  "shopping": 1488,
  "ment": 1489,
  "ines": 1490,
  "knowledge": 1491,
  "warm": 1492,
  "Esperanto": 1493,
  "gu@@": 1494,
  "taken": 1495,
  "flat": 1496,
  "quantity": 1497,
  "ms": 1498,
  "ft": 1499,
  "jokes": 1500,
  "island": 1501,
  "destroyed": 1502,
  "classroom": 1503,
  "wed": 1504,
  "cool": 1505,
  "cause": 1506,
  "ent": 1507,
  "tes": 1508,
  "dly": 1509,
  "elled": 1510,
  "impression": 1511,
  "sofa": 1512,
  "i": 1513,
  "ged": 1514,
  "favor": 1515,
  "1": 1516,
  "black": 1517,
  "higher": 1518,
  "sisters": 1519,
  "sho@@": 1520,
  "tal@@": 1521,
  "stuck": 1522,
  "translate": 1523,
  "writer": 1524,
  "stre@@": 1525,
  "picked": 1526,
  "cing": 1527,
  "entered": 1528,
  "stairs": 1529,
  "su@@": 1530,
  "rely": 1531,
  "ocean": 1532,
  "team": 1533,
  "appeared": 1534,
  "mor@@": 1535,
  "machine": 1536,
  "il@@": 1537,
  "return": 1538,
  "suitcase": 1539,
  "mosquitoes": 1540,
  "sugar": 1541,
  "pl@@": 1542,
  "theater": 1543,
  "appreciate": 1544,
  "responsibility": 1545,
  "drunk": 1546,
  "basketball": 1547,
  "successful": 1548,
  "lu@@": 1549,
  "sts": 1550,
  "keeps": 1551,
  "absent": 1552,
  "headache": 1553,
  "oranges": 1554,
  "gre@@": 1555,
  "poet": 1556,
  "supper": 1557,
  "mel@@": 1558,
  "soldiers": 1559,
  "bike": 1560,
  "divorced": 1561,
  "attention": 1562,
  "um": 1563,
  "religion": 1564,
  "pur@@": 1565,
  "prisoners": 1566,
  "hill": 1567,
  "shape": 1568,
  "ped": 1569,
  "feed": 1570,
  "related": 1571,
  "considered": 1572,
  "ll": 1573,
  "convinced": 1574,
  "form": 1575,
  "ols": 1576,
  "annoyed": 1577,
  "nose": 1578,
  "fever": 1579,
  "somebody": 1580,
  "radio": 1581,
  "latest": 1582,
  "drives": 1583,
  "States": 1584,
  "seeing": 1585,
  "information": 1586,
  "sad": 1587,
  "charge": 1588,
  "fresh": 1589,
  "tors": 1590,
  "hit": 1591,
  "upon": 1592,
  "courage": 1593,
  "private": 1594,
  "lately": 1595,
  "tur@@": 1596,
  "sharp": 1597,
  "cooking": 1598,
  "unlucky": 1599,
  "tr@@": 1600,
  "lay": 1601,
  "pe": 1602,
  "shelf": 1603,
  "pounds": 1604,
  "%": 1605,
  "none": 1606,
  "baked": 1607,
  "nine": 1608,
  "pocket": 1609,
  "ke": 1610,
  "cow": 1611,
  "carry": 1612,
  "pencil": 1613,
  "manager": 1614,
  "video": 1615,
  "salt": 1616,
  "opened": 1617,
  "ven@@": 1618,
  "sight": 1619,
  "till": 1620,
  "H@@": 1621,
  "plenty": 1622,
  "T@@": 1623,
  "comfortable": 1624,
  "hurts": 1625,
  "holiday": 1626,
  "election": 1627,
  "enemy": 1628,
  "agreed": 1629,
  "bri@@": 1630,
  "har@@": 1631,
  "choose": 1632,
  "ent@@": 1633,
  "om@@": 1634,
  "sort": 1635,
  "thick": 1636,
  "f": 1637,
  "keys": 1638,
  "ying": 1639,
  "lonely": 1640,
  "major": 1641,
  "group": 1642,
  "cking": 1643,
  "zoo": 1644,
  "min@@": 1645,
  "draw": 1646,
  "bu@@": 1647,
  "dry": 1648,
  "television": 1649,
  "pu@@": 1650,
  "ic@@": 1651,
  "kidding": 1652,
  "Mike": 1653,
  "chocolate": 1654,
  "type": 1655,
  "speech": 1656,
  "discussed": 1657,
  "bro@@": 1658,
  "soup": 1659,
  "counts": 1660,
  "spending": 1661,
  "wore": 1662,
  "n": 1663,
  "clo@@": 1664,
  "costs": 1665,
  "rid": 1666,
  "windows": 1667,
  "England": 1668,
  "involved": 1669,
  "dressed": 1670,
  "recently": 1671,
  "regret": 1672,
  "int": 1673,
  "ings": 1674,
  "ited": 1675,
  "handle": 1676,
  "ex": 1677,
  "washing": 1678,
  "ys": 1679,
  "digital": 1680,
  "exist": 1681,
  "wa@@": 1682,
  "stars": 1683,
  "meals": 1684,
  "pped": 1685,
  "fe@@": 1686,
  "fault": 1687,
  "decent": 1688,
  "ger@@": 1689,
  "Kim": 1690,
  "clever": 1691,
  "Earth": 1692,
  "prefers": 1693,
  "cancer": 1694,
  "ase": 1695,
  "shot": 1696,
  "pla@@": 1697,
  "dies": 1698,
  "public": 1699,
  "z@@": 1700,
  "fy": 1701,
  "beat": 1702,
  "actress": 1703,
  "desert": 1704,
  "Canada": 1705,
  "soft": 1706,
  "injured": 1707,
  "games": 1708,
  "delicious": 1709,
  "flo@@": 1710,
  "stepped": 1711,
  "sli@@": 1712,
  "poem": 1713,
  "normal": 1714,
  "blame": 1715,
  "star": 1716,
  "sen@@": 1717,
  "stra@@": 1718,
  "eventually": 1719,
  "pen@@": 1720,
  "useless": 1721,
  "avoid": 1722,
  "crash": 1723,
  "west": 1724,
  "plants": 1725,
  "honest": 1726,
  "field": 1727,
  "chair": 1728,
  "tures": 1729,
  "laid": 1730,
  "repair": 1731,
  "sel@@": 1732,
  "willing": 1733,
  "ul@@": 1734,
  "except": 1735,
  "borrowed": 1736,
  "rejected": 1737,
  "cousin": 1738,
  "C": 1739,
  "x": 1740,
  "pretending": 1741,
  "prison": 1742,
  "om": 1743,
  "ure": 1744,
  "nervous": 1745,
  "chat": 1746,
  "uses": 1747,
  "prote@@": 1748,
  "temperature": 1749,
  "midnight": 1750,
  "handbag": 1751,
  "weight": 1752,
  "walking": 1753,
  "mm@@": 1754,
  "round": 1755,
  "save": 1756,
  "studies": 1757,
  "tured": 1758,
  "sheep": 1759,
  "dish": 1760,
  "squirrels": 1761,
  "deals": 1762,
  "favourite": 1763,
  "market": 1764,
  "eight": 1765,
  "humans": 1766,
  ".@@": 1767,
  "confessed": 1768,
  "sand@@": 1769,
  "avoided": 1770,
  "begins": 1771,
  "pieces": 1772,
  "cul@@": 1773,
  "ens": 1774,
  "ball": 1775,
  "furniture": 1776,
  "20": 1777,
  "trap": 1778,
  "en": 1779,
  "fair": 1780,
  "board": 1781,
  "terrible": 1782,
  "cotton": 1783,
  "eu@@": 1784,
  "clock": 1785,
  "monster": 1786,
  "disappointed": 1787,
  "me@@": 1788,
  "native": 1789,
  "greatest": 1790,
  "wide": 1791,
  "ned": 1792,
  "ching": 1793,
  "earns": 1794,
  "rain@@": 1795,
  "crush": 1796,
  "pond": 1797,
  "seven": 1798,
  "ches": 1799,
  "driver": 1800,
  "tongue": 1801,
  "weapons": 1802,
  "clear": 1803,
  "bers": 1804,
  "translation": 1805,
  "Russian": 1806,
  "request": 1807,
  "u": 1808,
  "cer": 1809,
  "active": 1810,
  "enter": 1811,
  "luck": 1812,
  "Betty": 1813,
  "certainly": 1814,
  "gun": 1815,
  "is@@": 1816,
  "growing": 1817,
  "under@@": 1818,
  "ending": 1819,
  "coo@@": 1820,
  "traveled": 1821,
  "sh": 1822,
  "fat": 1823,
  "clearly": 1824,
  "recognize": 1825,
  "ther": 1826,
  "graduated": 1827,
  "served": 1828,
  "limit": 1829,
  "speed": 1830,
  "returned": 1831,
  "area": 1832,
  "attack": 1833,
  "seconds": 1834,
  "friendly": 1835,
  "local": 1836,
  "club": 1837,
  "sword": 1838,
  "leaves": 1839,
  "divorce": 1840,
  "permission": 1841,
  "ser@@": 1842,
  "animal": 1843,
  "sweater": 1844,
  "gray": 1845,
  "informed": 1846,
  "failure": 1847,
  "clouds": 1848,
  "hates": 1849,
  "guilty": 1850,
  "facts": 1851,
  "compare": 1852,
  "An@@": 1853,
  "duty": 1854,
  "theory": 1855,
  "stroke": 1856,
  "chicken": 1857,
  "ced": 1858,
  "sub@@": 1859,
  "novel": 1860,
  "acting": 1861,
  "thirteen": 1862,
  "constantly": 1863,
  "re": 1864,
  "rent": 1865,
  "sions": 1866,
  "U@@": 1867,
  "fields": 1868,
  "memories": 1869,
  "flight": 1870,
  "cre@@": 1871,
  "example": 1872,
  "pas@@": 1873,
  "bs": 1874,
  "interrupt": 1875,
  "consider": 1876,
  "happiness": 1877,
  "wondering": 1878,
  "attacked": 1879,
  "ters": 1880,
  "published": 1881,
  "3": 1882,
  "lows": 1883,
  "unconscious": 1884,
  "ets": 1885,
  "cy@@": 1886,
  "policy": 1887,
  "belong": 1888,
  "vari@@": 1889,
  "sufficient": 1890,
  "cute": 1891,
  "fri@@": 1892,
  "deserves": 1893,
  "sea": 1894,
  "et": 1895,
  "cross": 1896,
  "mention": 1897,
  "claim": 1898,
  "returning": 1899,
  "Brown": 1900,
  "ja@@": 1901,
  "advised": 1902,
  "celebrate": 1903,
  "particular": 1904,
  "player": 1905,
  "book@@": 1906,
  "sleepy": 1907,
  "sur@@": 1908,
  "Liisa": 1909,
  "action": 1910,
  "gin@@": 1911,
  "fo@@": 1912,
  "sion": 1913,
  "g": 1914,
  "blo@@": 1915,
  "calls": 1916,
  "carried": 1917,
  "chosen": 1918,
  "protect": 1919,
  "impressed": 1920,
  "cs": 1921,
  "ture": 1922,
  "fashion": 1923,
  "billion": 1924,
  "ish": 1925,
  "ster": 1926,
  "insects": 1927,
  "flies": 1928,
  "singing": 1929,
  "among": 1930,
  "hug": 1931,
  "funny": 1932,
  "bly": 1933,
  "bowl": 1934,
  "burned": 1935,
  "back@@": 1936,
  "cheese": 1937,
  "intentions": 1938,
  "ours": 1939,
  "bookstore": 1940,
  "nearly": 1941,
  "step": 1942,
  "ach@@": 1943,
  "position": 1944,
  "hold": 1945,
  "admit": 1946,
  "cookies": 1947,
  "bug": 1948,
  "fucking": 1949,
  "P@@": 1950,
  "selling": 1951,
  "hi@@": 1952,
  "ders": 1953,
  "however": 1954,
  "objection": 1955,
  "sushi": 1956,
  "urgent": 1957,
  "earlier": 1958,
  "wind": 1959,
  "joking": 1960,
  "kinds": 1961,
  "jo@@": 1962,
  "dan@@": 1963,
  "owned": 1964,
  "our@@": 1965,
  "direction": 1966,
  "Street": 1967,
  "pride": 1968,
  "results": 1969,
  "boat": 1970,
  "discussion": 1971,
  "awful": 1972,
  "pleasant": 1973,
  "cur@@": 1974,
  "naked": 1975,
  "fifteen": 1976,
  "rules": 1977,
  "bitten": 1978,
  "worse": 1979,
  "diamond": 1980,
  "sandwich": 1981,
  "laugh": 1982,
  "online": 1983,
  "lawyer": 1984,
  "twelve": 1985,
  "program": 1986,
  "violence": 1987,
  "ste@@": 1988,
  "confused": 1989,
  "ered": 1990,
  "independent": 1991,
  "row": 1992,
  "beauty": 1993,
  "sed": 1994,
  "final": 1995,
  "pretend": 1996,
  "bills": 1997,
  "quality": 1998,
  "largest": 1999,
  "aunt": 2000,
  "bet": 2001,
  "cried": 2002,
  "countries": 2003,
  "ones": 2004,
  "equal": 2005,
  "fla@@": 2006,
  "supermarket": 2007,
  "twin": 2008,
  "nowhere": 2009,
  "exc@@": 2010,
  "potatoes": 2011,
  "Neptune": 2012,
  "ordered": 2013,
  "go@@": 2014,
  "cigarettes": 2015,
  "ff": 2016,
  "whoever": 2017,
  "viol@@": 2018,
  "huge": 2019,
  "U.S.": 2020,
  "mom": 2021,
  "jail": 2022,
  "crowded": 2023,
  "retired": 2024,
  "neighborhood": 2025,
  "terms": 2026,
  "bank": 2027,
  "remained": 2028,
  "prove": 2029,
  "pizza": 2030,
  "Smith": 2031,
  "accused": 2032,
  "hunting": 2033,
  "farm": 2034,
  "oo@@": 2035,
  "lady": 2036,
  "factory": 2037,
  "support": 2038,
  "nonsense": 2039,
  "Roman": 2040,
  "ology": 2041,
  "ating": 2042,
  "tch": 2043,
  "ies": 2044,
  "wicked": 2045,
  "breath": 2046,
  "dying": 2047,
  "ness": 2048,
  "intelligence": 2049,
  "sc@@": 2050,
  "bottle": 2051,
  "W@@": 2052,
  "Friday": 2053,
  "government": 2054,
  "held": 2055,
  "reads": 2056,
  "lead": 2057,
  "15": 2058,
  "Dr.": 2059,
  "smart": 2060,
  "belongs": 2061,
  "wondered": 2062,
  "London": 2063,
  "precious": 2064,
  "advantage": 2065,
  "stone": 2066,
  "staring": 2067,
  "card": 2068,
  "ast": 2069,
  "hanging": 2070,
  "honey": 2071,
  "listened": 2072,
  "insult": 2073,
  "pink": 2074,
  "ality": 2075,
  "elephant": 2076,
  "license": 2077,
  "vers": 2078,
  "ass": 2079,
  "capital": 2080,
  "passengers": 2081,
  "youngest": 2082,
  "grown": 2083,
  "contr@@": 2084,
  "violent": 2085,
  "coun@@": 2086,
  "tip": 2087,
  "unemployment": 2088,
  "ir@@": 2089,
  "eleven": 2090,
  "storm": 2091,
  "wisdom": 2092,
  "qui@@": 2093,
  "throat": 2094,
  "break": 2095,
  "wood": 2096,
  "princess": 2097,
  "elevator": 2098,
  "interest": 2099,
  "stands": 2100,
  "fries": 2101,
  "talented": 2102,
  "taxi": 2103,
  "Rome": 2104,
  "unless": 2105,
  "bur@@": 2106,
  "dreaming": 2107,
  "tickets": 2108,
  "complicated": 2109,
  "nurse": 2110,
  "studied": 2111,
  "barely": 2112,
  "energy": 2113,
  "bananas": 2114,
  "chose": 2115,
  "tical": 2116,
  "snowing": 2117,
  "driven": 2118,
  "ots": 2119,
  "E@@": 2120,
  "item": 2121,
  "apologized": 2122,
  "entire": 2123,
  "perfect": 2124,
  "football": 2125,
  "D@@": 2126,
  "ors": 2127,
  "lies": 2128,
  "hopes": 2129,
  "pop@@": 2130,
  "tends": 2131,
  "servation": 2132,
  "castle": 2133,
  "robbed": 2134,
  "dela@@": 2135,
  "see@@": 2136,
  "ze": 2137,
  "ouse": 2138,
  "difficulties": 2139,
  "completed": 2140,
  "access": 2141,
  "effect": 2142,
  "kicked": 2143,
  "killing": 2144,
  "winds": 2145,
  "share": 2146,
  "audience": 2147,
  "deaf": 2148,
  "cover": 2149,
  "xing": 2150,
  "battle": 2151,
  "can@@": 2152,
  "blow": 2153,
  "Swiss": 2154,
  "devil": 2155,
  "reply": 2156,
  "breathe": 2157,
  "join": 2158,
  "drew": 2159,
  "begun": 2160,
  "deeply": 2161,
  "terri@@": 2162,
  "murder": 2163,
  "surrounded": 2164,
  "whom": 2165,
  "pt": 2166,
  "income": 2167,
  "source": 2168,
  "non@@": 2169,
  "am@@": 2170,
  "stronger": 2171,
  "gro@@": 2172,
  "smarter": 2173,
  "J@@": 2174,
  "scri@@": 2175,
  "kidnappers": 2176,
  "quick": 2177,
  "loyal": 2178,
  "George": 2179,
  "science": 2180,
  "whenever": 2181,
  "ables": 2182,
  "pig": 2183,
  "ples": 2184,
  "refle@@": 2185,
  "cheating": 2186,
  "wealth": 2187,
  "chairman": 2188,
  "Paul": 2189,
  "department": 2190,
  "peel": 2191,
  "marriage": 2192,
  "six@@": 2193,
  "spoil": 2194,
  "ignoring": 2195,
  "Ann": 2196,
  "worst": 2197,
  "annoying": 2198,
  "wished": 2199,
  "statement": 2200,
  "cis@@": 2201,
  "due": 2202,
  "stress": 2203,
  "A@@": 2204,
  "trial": 2205,
  "landed": 2206,
  "discount": 2207,
  "5": 2208,
  "leading": 2209,
  "ry": 2210,
  "songs": 2211,
  "arms": 2212,
  "sla@@": 2213,
  "brings": 2214,
  "checking": 2215,
  "continued": 2216,
  "situation": 2217,
  "motor@@": 2218,
  "topic": 2219,
  "obviously": 2220,
  "han@@": 2221,
  "50": 2222,
  "seldom": 2223,
  "tastes": 2224,
  "unwilling": 2225,
  "8@@": 2226,
  "communication": 2227,
  "middle": 2228,
  "-": 2229,
  "risk": 2230,
  "suitable": 2231,
  "safe": 2232,
  "lucky": 2233,
  "danced": 2234,
  "predi@@": 2235,
  "paying": 2236,
  "valuable": 2237,
  "soci@@": 2238,
  "helping": 2239,
  "Germans": 2240,
  "culture": 2241,
  "ners": 2242,
  "Scotland": 2243,
  "vo@@": 2244,
  "blan@@": 2245,
  "ght@@": 2246,
  "gar@@": 2247,
  "dates": 2248,
  "house@@": 2249,
  "arm": 2250,
  "promises": 2251,
  "various": 2252,
  "pets": 2253,
  "candy": 2254,
  "commen@@": 2255,
  "incompetent": 2256,
  "serves": 2257,
  "republic": 2258,
  "ning": 2259,
  "ony": 2260,
  "thus": 2261,
  "meant": 2262,
  "colle@@": 2263,
  "composer": 2264,
  "tless": 2265,
  "desire": 2266,
  "dare": 2267,
  "treated": 2268,
  "debt": 2269,
  "lion": 2270,
  "ars": 2271,
  "head@@": 2272,
  "2013": 2273,
  "Day": 2274,
  "snoring": 2275,
  "translated": 2276,
  "guardian": 2277,
  "R@@": 2278,
  "September": 2279,
  "it@@": 2280,
  "shows": 2281,
  "hell": 2282,
  "goodbye": 2283,
  "ignored": 2284,
  "laun@@": 2285,
  "reported": 2286,
  "sun@@": 2287,
  "pres@@": 2288,
  "mus@@": 2289,
  "uniforms": 2290,
  "ures": 2291,
  "ages": 2292,
  "dropped": 2293,
  "poured": 2294,
  "non": 2295,
  "develop@@": 2296,
  "ss@@": 2297,
  "exchange": 2298,
  "lent": 2299,
  "random": 2300,
  "ere@@": 2301,
  "ores": 2302,
  "garage": 2303,
  "nature": 2304,
  "Mrs.": 2305,
  "sig@@": 2306,
  "upstairs": 2307,
  "tax": 2308,
  "vens": 2309,
  "speaker": 2310,
  "conference": 2311,
  "represen@@": 2312,
  "golf": 2313,
  "ancient": 2314,
  "policeman": 2315,
  "ie": 2316,
  "volunteer": 2317,
  "cles": 2318,
  "minor": 2319,
  "um@@": 2320,
  "curious": 2321,
  "vers@@": 2322,
  "dom@@": 2323,
  "tenth": 2324,
  "cities": 2325,
  "fal@@": 2326,
  "ises": 2327,
  "insulted": 2328,
  "Sun": 2329,
  "classmates": 2330,
  "ger": 2331,
  "tourist": 2332,
  "sm@@": 2333,
  "tion@@": 2334,
  "discovered": 2335,
  "method": 2336,
  "condemned": 2337,
  "admi@@": 2338,
  "colour": 2339,
  "covered": 2340,
  "ge": 2341,
  "dust": 2342,
  "scientist": 2343,
  "scientific": 2344,
  "ju@@": 2345,
  "recommended": 2346,
  "useful": 2347,
  "neighbors": 2348,
  "surface": 2349,
  "tries": 2350,
  "und@@": 2351,
  "hid": 2352,
  "couch": 2353,
  "changing": 2354,
  "appointment": 2355,
  "church": 2356,
  "West": 2357,
  "experiment": 2358,
  "marks": 2359,
  "ot@@": 2360,
  "caused": 2361,
  "anxious": 2362,
  "evil": 2363,
  "eyesight": 2364,
  "compared": 2365,
  "treat": 2366,
  "tter": 2367,
  "population": 2368,
  "por@@": 2369,
  "relax": 2370,
  "goal": 2371,
  "downstairs": 2372,
  "noisy": 2373,
  "Al@@": 2374,
  "thir@@": 2375,
  "ics": 2376,
  "mobile": 2377,
  "proof": 2378,
  "block": 2379,
  "website": 2380,
  "single": 2381,
  "air@@": 2382,
  "screaming": 2383,
  "unemployed": 2384,
  "recommend": 2385,
  "disappoint": 2386,
  "cigarette": 2387,
  "refused": 2388,
  "nuclear": 2389,
  "similar": 2390,
  "coins": 2391,
  "traditional": 2392,
  "pretended": 2393,
  "cent": 2394,
  "hidden": 2395,
  "lack": 2396,
  "gged": 2397,
  "calm": 2398,
  "issue": 2399,
  "US": 2400,
  "eater": 2401,
  "conta@@": 2402,
  "Kobe": 2403,
  "pressure": 2404,
  "heat": 2405,
  "note": 2406,
  "whale": 2407,
  "care@@": 2408,
  "fre@@": 2409,
  "flower": 2410,
  "fix": 2411,
  "soul": 2412,
  "je@@": 2413,
  "tivity": 2414,
  "atta@@": 2415,
  "burst": 2416,
  "skiing": 2417,
  "fishing": 2418,
  "date": 2419,
  "rum@@": 2420,
  "progress": 2421,
  "buying": 2422,
  "sore": 2423,
  "instinct": 2424,
  "tely": 2425,
  "pr@@": 2426,
  "ATM": 2427,
  "ps": 2428,
  "frigh@@": 2429,
  "cop@@": 2430,
  "belt": 2431,
  "eighteen": 2432,
  "view": 2433,
  "holding": 2434,
  "thumb": 2435,
  "original": 2436,
  "cket": 2437,
  "receive": 2438,
  "Spain": 2439,
  "astronaut": 2440,
  "ished": 2441,
  "mixed": 2442,
  "advance": 2443,
  "becoming": 2444,
  "vain": 2445,
  "vegetables": 2446,
  "palace": 2447,
  "arguing": 2448,
  "existence": 2449,
  "washes": 2450,
  "bed@@": 2451,
  "understands": 2452,
  "Santa": 2453,
  "accent": 2454,
  "slow": 2455,
  "ignor@@": 2456,
  "December": 2457,
  "ce@@": 2458,
  "stranger": 2459,
  "rained": 2460,
  "tiger": 2461,
  "100": 2462,
  "ut": 2463,
  "south": 2464,
  "gly": 2465,
  "names": 2466,
  "Korean": 2467,
  "Greece": 2468,
  "Marika": 2469,
  "measures": 2470,
  "manage": 2471,
  "lend": 2472,
  "yers": 2473,
  "judge": 2474,
  "extremely": 2475,
  "Jackson": 2476,
  "Canadian": 2477,
  "indoors": 2478,
  "possibility": 2479,
  "seeds": 2480,
  "freedom": 2481,
  "task": 2482,
  "pool": 2483,
  "ber": 2484,
  "sting": 2485,
  "butter": 2486,
  "throw": 2487,
  "tor@@": 2488,
  "affection": 2489,
  "survived": 2490,
  "Facebook": 2491,
  "houses": 2492,
  "cap@@": 2493,
  "accomplished": 2494,
  "copy": 2495,
  "pea@@": 2496,
  "bedroom": 2497,
  "mis@@": 2498,
  "dessert": 2499,
  "regularly": 2500,
  "zero": 2501,
  "Y@@": 2502,
  "whispered": 2503,
  "kes": 2504,
  "simply": 2505,
  "ambulance": 2506,
  "Polish": 2507,
  "toys": 2508,
  "pronounce": 2509,
  "generally": 2510,
  "flute": 2511,
  "drawing": 2512,
  "gate": 2513,
  "jar": 2514,
  "add": 2515,
  "competi@@": 2516,
  "Africa": 2517,
  "lips": 2518,
  "meaningless": 2519,
  "shame": 2520,
  "Osaka": 2521,
  "joy": 2522,
  "lin@@": 2523,
  "7": 2524,
  "steal": 2525,
  "photos": 2526,
  "math": 2527,
  "sweet": 2528,
  "hi": 2529,
  "sudden": 2530,
  "$": 2531,
  "groups": 2532,
  "bbed": 2533,
  "push": 2534,
  "sharing": 2535,
  "fol@@": 2536,
  "suspicious": 2537,
  "hon@@": 2538,
  "hiding": 2539,
  "stadium": 2540,
  "Taro": 2541,
  "exciting": 2542,
  "shar@@": 2543,
  "flu@@": 2544,
  "size": 2545,
  "laughed": 2546,
  "hu@@": 2547,
  "ils": 2548,
  "bul@@": 2549,
  "skating": 2550,
  "def@@": 2551,
  "explo@@": 2552,
  "ential": 2553,
  "potato": 2554,
  "bla@@": 2555,
  "serve": 2556,
  "East": 2557,
  "personal": 2558,
  "offered": 2559,
  "hand@@": 2560,
  "drop": 2561,
  "sings": 2562,
  "page": 2563,
  "medi@@": 2564,
  "fli@@": 2565,
  "sol@@": 2566,
  "spi@@": 2567,
  "flag": 2568,
  "cli@@": 2569,
  "stomach": 2570,
  "ph@@": 2571,
  "asi@@": 2572,
  "anti@@": 2573,
  "F@@": 2574,
  "possibly": 2575,
  "forests": 2576,
  "G@@": 2577,
  "ve@@": 2578,
  "post": 2579,
  "aware": 2580,
  "boss": 2581,
  "wan@@": 2582,
  "ghts": 2583,
  "brain": 2584,
  "lit": 2585,
  "cheap": 2586,
  "turtles": 2587,
  "earnest": 2588,
  "World": 2589,
  "refuse": 2590,
  "ose": 2591,
  "haircut": 2592,
  "pie": 2593,
  "fond": 2594,
  "description": 2595,
  "snake": 2596,
  "climb": 2597,
  "Mars": 2598,
  "opportunity": 2599,
  "dar@@": 2600,
  "mate": 2601,
  "traveling": 2602,
  "majority": 2603,
  "remove": 2604,
  "waiter": 2605,
  "appear": 2606,
  "dec@@": 2607,
  "tt@@": 2608,
  "fox": 2609,
  "sunglasses": 2610,
  "dating": 2611,
  "suggest": 2612,
  "walks": 2613,
  "entering": 2614,
  "Latin": 2615,
  "rule": 2616,
  "customer": 2617,
  "succeed": 2618,
  "salad": 2619,
  "valley": 2620,
  "conqu@@": 2621,
  "atmosphere": 2622,
  "solved": 2623,
  "pon@@": 2624,
  "her@@": 2625,
  "ety": 2626,
  "ali@@": 2627,
  "mon@@": 2628,
  "Saturday": 2629,
  "laughter": 2630,
  "attra@@": 2631,
  "xed": 2632,
  "flew": 2633,
  "parcel": 2634,
  "que@@": 2635,
  "vity": 2636,
  "cti@@": 2637,
  "Sunday": 2638,
  "runs": 2639,
  "pes": 2640,
  "nodded": 2641,
  "occurred": 2642,
  "article": 2643,
  "bake": 2644,
  "val": 2645,
  "appro@@": 2646,
  "dishes": 2647,
  "hearing": 2648,
  "lacks": 2649,
  "author": 2650,
  "spee@@": 2651,
  "wer": 2652,
  "hole": 2653,
  "leads": 2654,
  "contribu@@": 2655,
  "boots": 2656,
  "disappeared": 2657,
  "poli@@": 2658,
  "menu": 2659,
  "alert": 2660,
  "cians": 2661,
  "illness": 2662,
  "South": 2663,
  "yourselves": 2664,
  "appears": 2665,
  "bene@@": 2666,
  "toward": 2667,
  "oper@@": 2668,
  "ations": 2669,
  "eded": 2670,
  "complains": 2671,
  "shu@@": 2672,
  "fled": 2673,
  "crea@@": 2674,
  "rooms": 2675,
  "comments": 2676,
  "shel@@": 2677,
  "Je@@": 2678,
  "dr@@": 2679,
  "ctor": 2680,
  "smiled": 2681,
  "removed": 2682,
  "continue": 2683,
  "friendship": 2684,
  "experienced": 2685,
  "et@@": 2686,
  "classical": 2687,
  "social": 2688,
  "bench": 2689,
  "starting": 2690,
  "6@@": 2691,
  "effects": 2692,
  "sk@@": 2693,
  "Rachel": 2694,
  "cakes": 2695,
  "cely": 2696,
  "dear": 2697,
  "pity": 2698,
  "gri@@": 2699,
  "display": 2700,
  "fairly": 2701,
  "out@@": 2702,
  "ised": 2703,
  "colorful": 2704,
  "porch": 2705,
  "Bible": 2706,
  "dri@@": 2707,
  "totally": 2708,
  "gener@@": 2709,
  "teeth": 2710,
  "fence": 2711,
  "impolite": 2712,
  "deta@@": 2713,
  "allergic": 2714,
  "waves": 2715,
  "expression": 2716,
  "March": 2717,
  "youth": 2718,
  "ling": 2719,
  "prince": 2720,
  "inches": 2721,
  "Jim": 2722,
  "fingers": 2723,
  "sy": 2724,
  "knocked": 2725,
  "foolish": 2726,
  "aw@@": 2727,
  "Greek": 2728,
  "ray": 2729,
  "suppose": 2730,
  "strangers": 2731,
  "dro@@": 2732,
  "guests": 2733,
  "ats": 2734,
  "Gu@@": 2735,
  "ear": 2736,
  "liter@@": 2737,
  "sin": 2738,
  "signed": 2739,
  "planted": 2740,
  "sna@@": 2741,
  "fill": 2742,
  "species": 2743,
  "convince": 2744,
  ",000": 2745,
  "conver@@": 2746,
  "zation": 2747,
  "Meg": 2748,
  "cheek": 2749,
  "bone": 2750,
  "end@@": 2751,
  "fate": 2752,
  "reali@@": 2753,
  "challenge": 2754,
  "god": 2755,
  "custom": 2756,
  "eighty": 2757,
  "guitarist": 2758,
  "scar@@": 2759,
  "elephants": 2760,
  "burden": 2761,
  "race": 2762,
  "10@@": 2763,
  "nor": 2764,
  "oms": 2765,
  "improved": 2766,
  "cated": 2767,
  "acc@@": 2768,
  "lest": 2769,
  "politics": 2770,
  "quarrel": 2771,
  "hire": 2772,
  "computers": 2773,
  "suicide": 2774,
  "ily": 2775,
  "citizen": 2776,
  "universe": 2777,
  "effort": 2778,
  "polite": 2779,
  "thi@@": 2780,
  "Chi@@": 2781,
  "zing": 2782,
  "Picasso": 2783,
  "bore": 2784,
  "prettier": 2785,
  "Church": 2786,
  "widened": 2787,
  "reputation": 2788,
  "spirit": 2789,
  "princi@@": 2790,
  "bas@@": 2791,
  "falsely": 2792,
  "rented": 2793,
  "center": 2794,
  "liar": 2795,
  "addict": 2796,
  "user": 2797,
  "diagnosis": 2798,
  "hr@@": 2799,
  "down@@": 2800,
  "med": 2801,
  "prisoner": 2802,
  "fog": 2803,
  "finishing": 2804,
  "familiar": 2805,
  "lei@@": 2806,
  "pose": 2807,
  "interpre@@": 2808,
  "May": 2809,
  "fixed": 2810,
  "shi@@": 2811,
  "ka@@": 2812,
  "purpose": 2813,
  "tal": 2814,
  "alley": 2815,
  "rang": 2816,
  "click": 2817,
  "Co@@": 2818,
  "Hawaii": 2819,
  "defeated": 2820,
  "sible": 2821,
  "sexy": 2822,
  "pale": 2823,
  "ruins": 2824,
  "analysis": 2825,
  "moon@@": 2826,
  "Kate": 2827,
  "downtown": 2828,
  "prevented": 2829,
  "mes": 2830,
  "wandered": 2831,
  "gotten": 2832,
  "Maria": 2833,
  "behalf": 2834,
  "bears": 2835,
  "Colosseum": 2836,
  "60": 2837,
  "cidents": 2838,
  "cting": 2839,
  "attractions": 2840,
  "nies": 2841,
  "mal@@": 2842,
  "careless": 2843,
  "rubber": 2844,
  "bon@@": 2845,
  "charming": 2846,
  "exam@@": 2847,
  "divide": 2848,
  "absurd": 2849,
  "gles": 2850,
  "JUMP": 2851,
  "double": 2852,
  "gifts": 2853,
  "searched": 2854,
  "equals": 2855,
  "egg": 2856,
  "CD": 2857,
  "verb": 2858,
  "ele@@": 2859,
  "pray": 2860,
  "USA": 2861,
  "fle@@": 2862,
  "reserve": 2863,
  "worms": 2864,
  "speci@@": 2865,
  "wing": 2866,
  "angel": 2867,
  "dia@@": 2868,
  "gue": 2869,
  "pilot": 2870,
  "ability": 2871,
  "cand@@": 2872,
  "spreading": 2873,
  "night@@": 2874,
  "tasted": 2875,
  "monthly": 2876,
  "rumour": 2877,
  "whales": 2878,
  "knee": 2879,
  "vir@@": 2880,
  "drawn": 2881,
  "unlikely": 2882,
  "highly": 2883,
  "offering": 2884,
  "service": 2885,
  "corner": 2886,
  "decorated": 2887,
  "minds": 2888,
  "pping": 2889,
  "imagination": 2890,
  "piss": 2891,
  "honesty": 2892,
  "judged": 2893,
  "mul@@": 2894,
  "parts": 2895,
  "ticklish": 2896,
  "versi@@": 2897,
  "Russians": 2898,
  "ses@@": 2899,
  "ror": 2900,
  "role": 2901,
  "pot": 2902,
  "Anne": 2903,
  "forced": 2904,
  "proje@@": 2905,
  "personally": 2906,
  "T": 2907,
  "cloud": 2908,
  "handwriting": 2909,
  "tragic": 2910,
  "especially": 2911,
  "oven": 2912,
  "spy": 2913,
  "shirts": 2914,
  "proce@@": 2915,
  "Ford": 2916,
  "colleague": 2917,
  "rin@@": 2918,
  "mankind": 2919,
  "soap": 2920,
  "welfare": 2921,
  "mistaken": 2922,
  "tre@@": 2923,
  "hall": 2924,
  "classmate": 2925,
  "bing": 2926,
  "twentieth": 2927,
  "pushed": 2928,
  "dem@@": 2929,
  "kindness": 2930,
  "cell@@": 2931,
  "Egypt": 2932,
  "gold": 2933,
  "artistic": 2934,
  "phones": 2935,
  "swallow": 2936,
  "horses": 2937,
  "listens": 2938,
  "punctuation": 2939,
  "remain": 2940,
  "permitted": 2941,
  "elling": 2942,
  "journe@@": 2943,
  "sooner": 2944,
  "steak": 2945,
  "greeted": 2946,
  "highest": 2947,
  "aring": 2948,
  "search": 2949,
  "tain": 2950,
  "cemetery": 2951,
  "swa@@": 2952,
  "water@@": 2953,
  "ur@@": 2954,
  "dge": 2955,
  "argued": 2956,
  "tum@@": 2957,
  "trium@@": 2958,
  "beans": 2959,
  "rough": 2960,
  "illing": 2961,
  "teenth": 2962,
  "powerful": 2963,
  "fas@@": 2964,
  "smell": 2965,
  "proposed": 2966,
  "forgive": 2967,
  "intimi@@": 2968,
  "é": 2969,
  "lation": 2970,
  "vas@@": 2971,
  "definitely": 2972,
  "expressed": 2973,
  "statesman": 2974,
  "customs": 2975,
  "precedes": 2976,
  "sal": 2977,
  "redder": 2978,
  "ball@@": 2979,
  "lob@@": 2980,
  "compani@@": 2981,
  "unsure": 2982,
  "contract": 2983,
  "clim@@": 2984,
  "heavily": 2985,
  "shr@@": 2986,
  "strike": 2987,
  "forgetting": 2988,
  "offici@@": 2989,
  "presence": 2990,
  "flour": 2991,
  "wee@@": 2992,
  "applied": 2993,
  "Jack": 2994,
  "magazine": 2995,
  "meaning": 2996,
  "jury": 2997,
  "nowadays": 2998,
  "sleeps": 2999,
  "contradict": 3000,
  "16": 3001,
  "beneath": 3002,
  "forbid": 3003,
  "Ocean": 3004,
  "Indi@@": 3005,
  "ken@@": 3006,
  "narrow": 3007,
  "distinguish": 3008,
  "concerns": 3009,
  "Kendo": 3010,
  "Atlantic": 3011,
  "martial": 3012,
  "beneficial": 3013,
  "con": 3014,
  "ale": 3015,
  "scene": 3016,
  "advan@@": 3017,
  "upside": 3018,
  "pace": 3019,
  "ckens": 3020,
  "distance": 3021,
  "model": 3022,
  "unexpected": 3023,
  "roll@@": 3024,
  "ming": 3025,
  "colours": 3026,
  "Chicago": 3027,
  "general": 3028,
  "booked": 3029,
  "beginners": 3030,
  "mal": 3031,
  "self@@": 3032,
  "lighter": 3033,
  "acquaintance": 3034,
  "anno@@": 3035,
  "ths": 3036,
  "approxima@@": 3037,
  "homesick": 3038,
  "00": 3039,
  "ough": 3040,
  "symp@@": 3041,
  "relative": 3042,
  "despite": 3043,
  "shallow": 3044,
  "bar": 3045,
  "holidays": 3046,
  "expand": 3047,
  "breaks": 3048,
  "some@@": 3049,
  "stays": 3050,
  "overnight": 3051,
  "runner": 3052,
  "childhood": 3053,
  "square": 3054,
  "oxygen": 3055,
  "inviting": 3056,
  "scen@@": 3057,
  "earthquake": 3058,
  "tting": 3059,
  "unk": 3060,
  "fun@@": 3061,
  "hesit@@": 3062,
  "enjoying": 3063,
  "opera": 3064,
  "coward": 3065,
  "pop": 3066,
  "mystery": 3067,
  "British": 3068,
  "India": 3069,
  "bell": 3070,
  "mid@@": 3071,
  "deci@@": 3072,
  "ulous": 3073,
  "modern": 3074,
  "affairs": 3075,
  "fer": 3076,
  "suffered": 3077,
  "strawberries": 3078,
  "flesh": 3079,
  "sal@@": 3080,
  "cl@@": 3081,
  "instru@@": 3082,
  "mathematician": 3083,
  "cooks": 3084,
  "/": 3085,
  "hurried": 3086,
  "remains": 3087,
  "ep@@": 3088,
  "control": 3089,
  "thrown": 3090,
  "mature": 3091,
  "asing": 3092,
  "sets": 3093,
  "ari@@": 3094,
  "special": 3095,
  "travel@@": 3096,
  "chauffeur": 3097,
  "Social@@": 3098,
  "vel@@": 3099,
  "European": 3100,
  "ologist": 3101,
  "vase": 3102,
  "Tony": 3103,
  "export": 3104,
  "sixty": 3105,
  "gently": 3106,
  "mmed": 3107,
  "January": 3108,
  "forty": 3109,
  "practices": 3110,
  "cler@@": 3111,
  "gy@@": 3112,
  "urged": 3113,
  ".S@@": 3114,
  "folded": 3115,
  "barked": 3116,
  "Cookie": 3117,
  "songwriter": 3118,
  "properly": 3119,
  "consci@@": 3120,
  "enterpri@@": 3121,
  "beside": 3122,
  "For@@": 3123,
  "ining": 3124,
  "shed": 3125,
  "besi@@": 3126,
  "subway": 3127,
  "Under@@": 3128,
  "Britain": 3129,
  "scre@@": 3130,
  "concern": 3131,
  "tative": 3132,
  "category": 3133,
  "repre@@": 3134,
  "depressed": 3135,
  "Austria": 3136,
  "spends": 3137,
  "ood@@": 3138,
  "ceiling": 3139,
  "enti@@": 3140,
  "toes": 3141,
  "exercise": 3142,
  "intention": 3143,
  "fortunate": 3144,
  "clin@@": 3145,
  "reality": 3146,
  "ckets": 3147,
  "partly": 3148,
  "measured": 3149,
  "collection": 3150,
  "truly": 3151,
  "uni@@": 3152,
  "Se@@": 3153,
  "baggage": 3154,
  "museum": 3155,
  "lift": 3156,
  "far@@": 3157,
  "senting": 3158,
  "shoot": 3159,
  "medium": 3160,
  "pollution": 3161,
  "cruel": 3162,
  "dea@@": 3163,
  "traitor": 3164,
  "tem@@": 3165,
  "Fre@@": 3166,
  "greatly": 3167,
  "using": 3168,
  "fra@@": 3169,
  "nished": 3170,
  "response": 3171,
  "rare": 3172,
  "Eros": 3173,
  "lower": 3174,
  "tough": 3175,
  "cer@@": 3176,
  "recognized": 3177,
  "els": 3178,
  "obe@@": 3179,
  "services": 3180,
  "exi@@": 3181,
  "embas@@": 3182,
  "ise": 3183,
  "X": 3184,
  "Ro@@": 3185,
  "tape": 3186,
  "tial": 3187,
  "transla@@": 3188,
  "ur": 3189,
  "vered": 3190,
  "imitate": 3191,
  "chairperson": 3192,
  "surgery": 3193,
  "suppor@@": 3194,
  "otherwise": 3195,
  "Soviet": 3196,
  "id": 3197,
  "brakes": 3198,
  "mann@@": 3199,
  "V@@": 3200,
  "complained": 3201,
  "dig@@": 3202,
  "Thomas": 3203,
  "meteor": 3204,
  "irre@@": 3205,
  "z": 3206,
  "hicc@@": 3207,
  "imagined": 3208,
  "kid": 3209,
  "smaller": 3210,
  "brea@@": 3211,
  "below": 3212,
  "master": 3213,
  "awoke": 3214,
  "branch": 3215,
  "ired": 3216,
  "willed": 3217,
  "provi@@": 3218,
  "tor": 3219,
  "William": 3220,
  "40": 3221,
  "gambling": 3222,
  "gal": 3223,
  "ful@@": 3224,
  "tip@@": 3225,
  "ann@@": 3226,
  "ton@@": 3227,
  "Brazilian": 3228,
  "decline": 3229,
  "hated": 3230,
  "ups": 3231,
  "knowing": 3232,
  "extra": 3233,
  "scream": 3234,
  "gradually": 3235,
  "therly": 3236,
  "load": 3237,
  "vest": 3238,
  "feeds": 3239,
  "cally": 3240,
  "recall": 3241,
  "doors": 3242,
  "asy": 3243,
  "N@@": 3244,
  "res": 3245,
  "tropical": 3246,
  "gran@@": 3247,
  "ttery": 3248,
  "phenom@@": 3249,
  "gar": 3250,
  "ries": 3251,
  "5,000": 3252,
  "boxes": 3253,
  "prom@@": 3254,
  "Denmark": 3255,
  "argue": 3256,
  "ere": 3257,
  "create": 3258,
  "pun@@": 3259,
  "profit": 3260,
  "sending": 3261,
  "tras@@": 3262,
  "magnetic": 3263,
  "soli@@": 3264,
  "burn": 3265,
  "swallowed": 3266,
  "toma@@": 3267,
  "overdose": 3268,
  "vegetable": 3269,
  "vated": 3270,
  "cucumber": 3271,
  "dim@@": 3272,
  "astr@@": 3273,
  "shaving": 3274,
  "comb": 3275,
  "Internet": 3276,
  "let@@": 3277,
  "raised": 3278,
  "collap@@": 3279,
  "prevent": 3280,
  "cab": 3281,
  "rock": 3282,
  "surrender": 3283,
  "nation@@": 3284,
  "arri@@": 3285,
  "carding": 3286,
  "wool": 3287,
  "missing": 3288,
  "sold": 3289,
  "hos@@": 3290,
  "mainly": 3291,
  "printed": 3292,
  "suffer": 3293,
  "foreigner": 3294,
  "worker": 3295,
  "evident": 3296,
  "saving": 3297,
  "further": 3298,
  "3.4": 3299,
  "millionaires": 3300,
  "attraction": 3301,
  "ze@@": 3302,
  "awakened": 3303,
  "tted": 3304,
  "file": 3305,
  "b": 3306,
  "ther@@": 3307,
  "thieving": 3308,
  "ille@@": 3309,
  "pion": 3310,
  "mustache": 3311,
  "business@@": 3312,
  "blin@@": 3313,
  "yard": 3314,
  "holder": 3315,
  "seas@@": 3316,
  "professor": 3317,
  "fresh@@": 3318,
  "claims": 3319,
  "credit": 3320,
  "diet": 3321,
  "smu@@": 3322,
  "ggler": 3323,
  "ow@@": 3324,
  "mechan@@": 3325,
  "fore@@": 3326,
  "assume": 3327,
  "sweaty": 3328,
  "Easter": 3329,
  "footprints": 3330,
  "stern": 3331,
  "mentioned": 3332,
  "invite": 3333,
  "smells": 3334,
  "lasted": 3335,
  "woods": 3336,
  "frog": 3337,
  "grade": 3338,
  "sture": 3339,
  "denied": 3340,
  "deliberately": 3341,
  "cham@@": 3342,
  "spare": 3343,
  "rhythm": 3344,
  "shore": 3345,
  "tied": 3346,
  "celebra@@": 3347,
  "abinet": 3348,
  "proofread": 3349,
  "lot@@": 3350,
  "zy": 3351,
  "us@@": 3352,
  "aire": 3353,
  "July": 3354,
  "tioned": 3355,
  "recor@@": 3356,
  "tossed": 3357,
  "data": 3358,
  "sales": 3359,
  "Pa@@": 3360,
  "ory": 3361,
  "canceled": 3362,
  "meal": 3363,
  "sty": 3364,
  "patience": 3365,
  "knees": 3366,
  "ner@@": 3367,
  "ot": 3368,
  "scissors": 3369,
  "waitress": 3370,
  "wre@@": 3371,
  "&apos;@@": 3372,
  "press": 3373,
  "tish": 3374,
  "estate": 3375,
  "War": 3376,
  "Fa@@": 3377,
  "quire": 3378,
  "lab@@": 3379,
  "statue": 3380,
  "gain": 3381,
  "tray": 3382,
  "total": 3383,
  "beg@@": 3384,
  "sausage": 3385,
  "affected": 3386,
  "pockets": 3387,
  "section": 3388,
  "Russia": 3389,
  "facing": 3390,
  "financial": 3391,
  "bit@@": 3392,
  "direct": 3393,
  "mall": 3394,
  "superstition": 3395,
  "nu@@": 3396,
  "director": 3397,
  "Po@@": 3398,
  "sample": 3399,
  "earn": 3400,
  "Galileo": 3401,
  "bags": 3402,
  "caffeine": 3403,
  "rejo@@": 3404,
  "tear": 3405,
  "Emily": 3406,
  "bin": 3407,
  "subject": 3408,
  "searching": 3409,
  "packed": 3410,
  "sil@@": 3411,
  "barking": 3412,
  "tail@@": 3413,
  "euro": 3414,
  "thee": 3415,
  "invitation": 3416,
  "Italy": 3417,
  "lities": 3418,
  "disa@@": 3419,
  "alike": 3420,
  "added": 3421,
  "chest": 3422,
  "revolution": 3423,
  "poin@@": 3424,
  "Claus": 3425,
  "roa@@": 3426,
  "mp@@": 3427,
  "fee@@": 3428,
  "trumpet": 3429,
  "faith": 3430,
  "genius": 3431,
  "wasting": 3432,
  "spell": 3433,
  "gay": 3434,
  "unbe@@": 3435,
  "beginner": 3436,
  "wall@@": 3437,
  "mirror": 3438,
  "sticking": 3439,
  "bathroom": 3440,
  "nights": 3441,
  "parted": 3442,
  "kissing": 3443,
  "remind": 3444,
  "revenge": 3445,
  "criminal": 3446,
  "maged": 3447,
  "helicopter": 3448,
  "acted": 3449,
  "seized": 3450,
  "inclu@@": 3451,
  "protected": 3452,
  "oned": 3453,
  "net": 3454,
  "snow@@": 3455,
  "vy": 3456,
  "ffled": 3457,
  "closet": 3458,
  "arily": 3459,
  "gunshot": 3460,
  "gladly": 3461,
  "preparing": 3462,
  "visiting": 3463,
  "larger": 3464,
  "clearing": 3465,
  "ear@@": 3466,
  "approve": 3467,
  "psych@@": 3468,
  "myster@@": 3469,
  "ury": 3470,
  "ts@@": 3471,
  "bugs": 3472,
  "shoulder": 3473,
  "disguise": 3474,
  "vit@@": 3475,
  "bition": 3476,
  "brigh@@": 3477,
  "pleasure": 3478,
  "penny": 3479,
  "ttered": 3480,
  "grounds": 3481,
  "sca@@": 3482,
  "newspapers": 3483,
  "loss": 3484,
  "unimpressed": 3485,
  "jogging": 3486,
  "orable": 3487,
  "fits": 3488,
  "regarded": 3489,
  "rela@@": 3490,
  "robbers": 3491,
  "waste": 3492,
  "survi@@": 3493,
  "succeeded": 3494,
  "regards": 3495,
  "spider": 3496,
  "Wikipedia": 3497,
  "papers": 3498,
  "postcard": 3499,
  "secrets": 3500,
  "skirt": 3501,
  "liter": 3502,
  "gasoline": 3503,
  "reasonable": 3504,
  "sau@@": 3505,
  "chopped": 3506,
  "ple@@": 3507,
  "essly": 3508,
  "grave": 3509,
  "doubts": 3510,
  "traitors": 3511,
  "fear@@": 3512,
  "attempt": 3513,
  "surro@@": 3514,
  "gloves": 3515,
  "ctively": 3516,
  "sno@@": 3517,
  "catches": 3518,
  "firefighter": 3519,
  "el": 3520,
  "canc@@": 3521,
  "relie@@": 3522,
  "proletari@@": 3523,
  "towards": 3524,
  "remembered": 3525,
  "obvious": 3526,
  "band": 3527,
  "situations": 3528,
  "sides": 3529,
  "expl@@": 3530,
  "ost@@": 3531,
  "intolerance": 3532,
  "barriers": 3533,
  "stics": 3534,
  "negligent": 3535,
  "pain@@": 3536,
  "dressing": 3537,
  "cure": 3538,
  "punish": 3539,
  "ical": 3540,
  "wizard": 3541,
  "bleeding": 3542,
  "sang": 3543,
  "sounded": 3544,
  "proved": 3545,
  "declar@@": 3546,
  "dence": 3547,
  "Arthur": 3548,
  "doc@@": 3549,
  "pork": 3550,
  "dependent": 3551,
  "jungle": 3552,
  "lessons": 3553,
  "Halloween": 3554,
  "invented": 3555,
  "cockroaches": 3556,
  "minister": 3557,
  "corn": 3558,
  "weigh": 3559,
  "hangover": 3560,
  "comple@@": 3561,
  "xi@@": 3562,
  "hero": 3563,
  "committee": 3564,
  "19": 3565,
  "toe": 3566,
  "caus@@": 3567,
  "quietly": 3568,
  "isolated": 3569,
  "ids": 3570,
  "rough@@": 3571,
  "weighs": 3572,
  "trains": 3573,
  "stened": 3574,
  "top@@": 3575,
  "sable": 3576,
  "stopping": 3577,
  "accustomed": 3578,
  "winning": 3579,
  "tically": 3580,
  "ama@@": 3581,
  "chemistry": 3582,
  "Although": 3583,
  "cinema": 3584,
  "comp@@": 3585,
  "sive": 3586,
  "rabbits": 3587,
  "purse": 3588,
  "deser@@": 3589,
  "hiring": 3590,
  "hers": 3591,
  "harmful": 3592,
  "consequences": 3593,
  "ride": 3594,
  "purchased": 3595,
  "separated": 3596,
  "murders": 3597,
  "dye": 3598,
  "Kebab": 3599,
  "ori@@": 3600,
  "destru@@": 3601,
  "sacred": 3602,
  "obliga@@": 3603,
  "pleased": 3604,
  "bother": 3605,
  "bite": 3606,
  "apply": 3607,
  "relatively": 3608,
  "bre@@": 3609,
  "2011": 3610,
  "misunderstanding": 3611,
  "hanged": 3612,
  "correc@@": 3613,
  "slave": 3614,
  "nit@@": 3615,
  "quantities": 3616,
  "complain": 3617,
  "tower": 3618,
  "snore": 3619,
  "thesis": 3620,
  "mark": 3621,
  "knocking": 3622,
  "obje@@": 3623,
  "earned": 3624,
  "hal@@": 3625,
  "resist": 3626,
  "sweetheart": 3627,
  "excep@@": 3628,
  "planes": 3629,
  "forecast": 3630,
  "moral": 3631,
  "vector": 3632,
  "standards": 3633,
  "Ar@@": 3634,
  "oldest": 3635,
  "physi@@": 3636,
  "spo@@": 3637,
  "garbage": 3638,
  "tourists": 3639,
  "everyday": 3640,
  "congratulated": 3641,
  "stamp": 3642,
  "envelope": 3643,
  "foc@@": 3644,
  "suspe@@": 3645,
  "ordinary": 3646,
  "average": 3647,
  "graduates": 3648,
  "bir@@": 3649,
  "landing": 3650,
  "cas@@": 3651,
  "cable": 3652,
  "ament": 3653,
  "tually": 3654,
  "Par@@": 3655,
  "match": 3656,
  "hugged": 3657,
  "describe": 3658,
  "treats": 3659,
  "betra@@": 3660,
  "novels": 3661,
  "arrest": 3662,
  "replaced": 3663,
  "plant": 3664,
  "communica@@": 3665,
  "perfectly": 3666,
  "suited": 3667,
  "aim": 3668,
  "willpower": 3669,
  "fundamental": 3670,
  "temp@@": 3671,
  "tives": 3672,
  "rebels": 3673,
  "miniskir@@": 3674,
  "temptation": 3675,
  "directly": 3676,
  "gen": 3677,
  "ckled": 3678,
  "up@@": 3679,
  "romantic": 3680,
  "dieting": 3681,
  "scientists": 3682,
  "whisky": 3683,
  "appearance": 3684,
  "Marilyn": 3685,
  "Monroe": 3686,
  "justice": 3687,
  "humili@@": 3688,
  "Hebrew": 3689,
  "explore": 3690,
  "thers": 3691,
  "grand@@": 3692,
  "inculcated": 3693,
  "engine": 3694,
  "consu@@": 3695,
  "oil": 3696,
  "joined": 3697,
  "acceptable": 3698,
  "lacking": 3699,
  "rushed": 3700,
  "mag@@": 3701,
  "Middle": 3702,
  "Ages": 3703,
  "shrank": 3704,
  "jeans": 3705,
  "repa@@": 3706,
  "str@@": 3707,
  "prize": 3708,
  "Yoko": 3709,
  "ie@@": 3710,
  "Apart": 3711,
  "political": 3712,
  "express@@": 3713,
  "gle": 3714,
  "grap@@": 3715,
  "nap@@": 3716,
  "neighb@@": 3717,
  "loving": 3718,
  "insecure": 3719,
  "positive": 3720,
  "ite": 3721,
  "inbox": 3722,
  "gement": 3723,
  "ad": 3724,
  "ements": 3725,
  "negative": 3726,
  "symbol": 3727,
  "rupulous": 3728,
  "chemi@@": 3729,
  "tic": 3730,
  "acts": 3731,
  "kilometers": 3732,
  "sligh@@": 3733,
  "typical": 3734,
  "politician": 3735,
  "persu@@": 3736,
  "selfish": 3737,
  "Emperor": 3738,
  "optimistic": 3739,
  "cru@@": 3740,
  "elly": 3741,
  "Dad": 3742,
  "Queen": 3743,
  "fellow": 3744,
  "faults": 3745,
  "Mexic@@": 3746,
  "ashes": 3747,
  "dered": 3748,
  "customers": 3749,
  "pet": 3750,
  "current": 3751,
  "45": 3752,
  "carriage": 3753,
  "mainland": 3754,
  "term": 3755,
  "gradu@@": 3756,
  "3@@": 3757,
  "super@@": 3758,
  "aeroplan@@": 3759,
  "fru@@": 3760,
  "increasing": 3761,
  "toy": 3762,
  "leng@@": 3763,
  "arrogant": 3764,
  "rights": 3765,
  "pillow": 3766,
  "waved": 3767,
  "Sundays": 3768,
  "matches": 3769,
  "August": 3770,
  "warmer": 3771,
  "ckma@@": 3772,
  "inherited": 3773,
  "tempting": 3774,
  "parks": 3775,
  "salary": 3776,
  "blowing": 3777,
  "ause": 3778,
  "candidate": 3779,
  "attempted": 3780,
  "textbook": 3781,
  "satis@@": 3782,
  "curtains": 3783,
  "Fuji": 3784,
  "truck": 3785,
  "particularly": 3786,
  "gen@@": 3787,
  "Mt": 3788,
  "Wednesday": 3789,
  "Tuesday": 3790,
  "delivery": 3791,
  "tude": 3792,
  "wheel": 3793,
  "panic": 3794,
  "surprise": 3795,
  "angels": 3796,
  "minerals": 3797,
  "gr@@": 3798,
  "shopp@@": 3799,
  "wet": 3800,
  "breasts": 3801,
  "mistook": 3802,
  "embarrassed": 3803,
  "resources": 3804,
  "regu@@": 3805,
  "ig@@": 3806,
  "bos@@": 3807,
  "mist": 3808,
  "leaders": 3809,
  "den": 3810,
  "solid": 3811,
  "odd": 3812,
  "medal": 3813,
  "wel@@": 3814,
  "escaped": 3815,
  "skin": 3816,
  "woo@@": 3817,
  "sent@@": 3818,
  "borders": 3819,
  "passport": 3820,
  "overseas": 3821,
  "degrees": 3822,
  "11": 3823,
  "questi@@": 3824,
  "longest": 3825,
  "waking": 3826,
  "carpet": 3827,
  "tempor@@": 3828,
  "tan@@": 3829,
  "unfriendly": 3830,
  "haunted": 3831,
  "brie@@": 3832,
  "stin@@": 3833,
  "ne": 3834,
  "disgu@@": 3835,
  "thor@@": 3836,
  "autumn": 3837,
  "differ": 3838,
  "improve": 3839,
  "opinions": 3840,
  "laptop": 3841,
  "blonde": 3842,
  "pic@@": 3843,
  "extin@@": 3844,
  "located": 3845,
  "lear@@": 3846,
  "puppy": 3847,
  "voted": 3848,
  "bic": 3849,
  "stu@@": 3850,
  "ff@@": 3851,
  "screamed": 3852,
  "Vol@@": 3853,
  "fails": 3854,
  "hea@@": 3855,
  "mill": 3856,
  "employe@@": 3857,
  "intended": 3858,
  "bats": 3859,
  "B@@": 3860,
  "Mother": 3861,
  "hitting": 3862,
  "typhoon": 3863,
  "permit": 3864,
  "content": 3865,
  "pire": 3866,
  "aston@@": 3867,
  "concentra@@": 3868,
  "Jong": 3869,
  "hol@@": 3870,
  "Somehow": 3871,
  "anger": 3872,
  "ir": 3873,
  "mathematics": 3874,
  "dumped": 3875,
  "debate": 3876,
  "charac@@": 3877,
  "addicted": 3878,
  "detective": 3879,
  "abandoned": 3880,
  "wounded": 3881,
  "malt": 3882,
  "tent": 3883,
  "wonderful": 3884,
  "hum@@": 3885,
  "wig": 3886,
  "devices": 3887,
  "syn@@": 3888,
  "ak@@": 3889,
  "gathered": 3890,
  "seduce": 3891,
  "bells": 3892,
  "aper@@": 3893,
  "1900": 3894,
  "tricked": 3895,
  "eting": 3896,
  "feels": 3897,
  "doub@@": 3898,
  "persuade": 3899,
  "twi@@": 3900,
  "reached": 3901,
  "cared": 3902,
  "majored": 3903,
  "alli@@": 3904,
  "composed": 3905,
  "poker": 3906,
  "bringing": 3907,
  "laws": 3908,
  "hill@@": 3909,
  "senior": 3910,
  "tated": 3911,
  "efforts": 3912,
  "drain": 3913,
  "managed": 3914,
  "replied": 3915,
  "tag": 3916,
  "Du@@": 3917,
  "warm@@": 3918,
  "gues": 3919,
  "approached": 3920,
  "vingly": 3921,
  "motion": 3922,
  "accordance": 3923,
  "mit": 3924,
  "depend": 3925,
  "smok@@": 3926,
  "matic": 3927,
  "nia": 3928,
  "bathing": 3929,
  "leather": 3930,
  "confi@@": 3931,
  "forest": 3932,
  "moons": 3933,
  "balance": 3934,
  "captain": 3935,
  "tation": 3936,
  "Mayuko": 3937,
  "genuine": 3938,
  "af@@": 3939,
  "heated": 3940,
  "stops": 3941,
  "tab@@": 3942,
  "disagree": 3943,
  "industri@@": 3944,
  "hou@@": 3945,
  "dged": 3946,
  "kers": 3947,
  "controlled": 3948,
  "difficulty": 3949,
  "Park": 3950,
  "suggestions": 3951,
  "bound": 3952,
  "ght": 3953,
  "ler": 3954,
  "Ba@@": 3955,
  "resource@@": 3956,
  "shoe": 3957,
  "econom@@": 3958,
  "ically": 3959,
  "plate": 3960,
  "grandparents": 3961,
  "500": 3962,
  "Newton": 3963,
  "crocodile": 3964,
  "based": 3965,
  "ral": 3966,
  "exper@@": 3967,
  "servations": 3968,
  "expert": 3969,
  "ving": 3970,
  "sale": 3971,
  "bath": 3972,
  "del@@": 3973,
  "deer": 3974,
  "considerate": 3975,
  "a.m": 3976,
  "wled": 3977,
  "rup@@": 3978,
  "wo@@": 3979,
  "amoun@@": 3980,
  "bridge": 3981,
  "drugs": 3982,
  "frequently": 3983,
  "Elizabeth": 3984,
  "prime": 3985,
  "soundly": 3986,
  "dated": 3987,
  "condition": 3988,
  "fasten": 3989,
  "jewelry": 3990,
  "skeptical": 3991,
  "peti@@": 3992,
  "ny": 3993,
  "threatened": 3994,
  "tness": 3995,
  "buildings": 3996,
  "swi@@": 3997,
  "advise": 3998,
  "easier": 3999,
  "quit@@": 4000,
  "ption": 4001,
  "yo@@": 4002,
  "injuries": 4003,
  "collect": 4004,
  "remaining": 4005,
  "sunshine": 4006,
  "bud@@": 4007,
  "inac@@": 4008,
  "centuries": 4009,
  "roses": 4010,
  "hear@@": 4011,
  "realized": 4012,
  "height": 4013,
  "handed": 4014,
  "helps": 4015,
  "ener": 4016,
  "departure": 4017,
  "ware": 4018,
  "bomb": 4019,
  "communi@@": 4020,
  "overweight": 4021,
  "ator": 4022,
  "vement": 4023,
  "impro@@": 4024,
  "fiction": 4025,
  "monsters": 4026,
  "crowbar": 4027,
  "lid": 4028,
  "tooth": 4029,
  "dder": 4030,
  "influ@@": 4031,
  "Cathy": 4032,
  "conf@@": 4033,
  "noon": 4034,
  "troubles": 4035,
  "jum@@": 4036,
  "ams": 4037,
  "juice": 4038,
  "sheets": 4039,
  "Layla": 4040,
  "thro@@": 4041,
  "In@@": 4042,
  "hed": 4043,
  "fav@@": 4044,
  "oura@@": 4045,
  "practice": 4046,
  "eds": 4047,
  "gorgeous": 4048,
  "2015": 4049,
  "Wo@@": 4050,
  "shadow": 4051,
  "color": 4052,
  "raw": 4053,
  "neighbour@@": 4054,
  "banana": 4055,
  "helpful": 4056,
  "spicy": 4057,
  "drowned": 4058,
  "exp@@": 4059,
  "detailed": 4060,
  "I@@": 4061,
  "set@@": 4062,
  "land@@": 4063,
  "drops": 4064,
  "Con@@": 4065,
  "sole": 4066,
  "mming": 4067,
  "butter@@": 4068,
  "tail": 4069,
  "hom@@": 4070,
  "behaved": 4071,
  "argument": 4072,
  "opposite": 4073,
  "Arabic": 4074,
  "photographic": 4075,
  "cups": 4076,
  "scra@@": 4077,
  "mountains": 4078,
  "bigger": 4079,
  "climate": 4080,
  "cleaning": 4081,
  "disease": 4082,
  "image": 4083,
  "packing": 4084,
  "inve@@": 4085,
  "fed": 4086,
  "Dima": 4087,
  "organi@@": 4088,
  "tolerant": 4089,
  "wound": 4090,
  "showing": 4091,
  "assumed": 4092,
  "swe@@": 4093,
  "pandas": 4094,
  "gdom": 4095,
  "volume": 4096,
  "incurable": 4097,
  "adopted": 4098,
  "Cup": 4099,
  "require": 4100,
  "stray": 4101,
  "complaining": 4102,
  "cal@@": 4103,
  "bucket": 4104,
  "lations": 4105,
  "gives": 4106,
  "sever@@": 4107,
  "lazy": 4108,
  "Un@@": 4109,
  "laughs": 4110,
  "irri@@": 4111,
  "peace@@": 4112,
  "aries": 4113,
  "owed": 4114,
  "rise": 4115,
  "pair": 4116,
  "visitor": 4117,
  "res@@": 4118,
  "ctions": 4119,
  "economic": 4120,
  "surpri@@": 4121,
  "civil": 4122,
  "Dolphins": 4123,
  "amazing": 4124,
  "brand": 4125,
  "embar@@": 4126,
  "threa@@": 4127,
  "ado@@": 4128,
  "tens": 4129,
  "playful": 4130,
  "dreamed": 4131,
  "interview": 4132,
  "guard": 4133,
  "os": 4134,
  "cha@@": 4135,
  "retire": 4136,
  "teri@@": 4137,
  "finding": 4138,
  "utter": 4139,
  "screw": 4140,
  "cky": 4141,
  "City": 4142,
  "jealousy": 4143,
  "announced": 4144,
  "dete@@": 4145,
  "ditch": 4146,
  "evidence": 4147,
  "enchantress": 4148,
  "orbit@@": 4149,
  "arest": 4150,
  "profession": 4151,
  "pens": 4152,
  "gym": 4153,
  "conclu@@": 4154,
  "disturbing": 4155,
  "esome": 4156,
  "sors": 4157,
  "abo@@": 4158,
  "sank": 4159,
  "Irish": 4160,
  "colors": 4161,
  "au@@": 4162,
  "supp@@": 4163,
  "heavens": 4164,
  "girlfriends": 4165,
  "esteem": 4166,
  "blush": 4167,
  "repay": 4168,
  "ges": 4169,
  "female": 4170,
  "earthquakes": 4171,
  "sele@@": 4172,
  "constant": 4173,
  "apped": 4174,
  "blanket": 4175,
  "thread": 4176,
  "contains": 4177,
  "vol@@": 4178,
  "armed": 4179,
  "sins": 4180,
  "reports": 4181,
  "medieval": 4182,
  "entirely": 4183,
  "simpler": 4184,
  "homeless": 4185,
  "complete": 4186,
  "miracle": 4187,
  "mira@@": 4188,
  "stered": 4189,
  "Republi@@": 4190,
  "deny": 4191,
  "cheerful": 4192,
  "Com@@": 4193,
  "camp@@": 4194,
  "tribu@@": 4195,
  "concentrate": 4196,
  "aches": 4197,
  "committed": 4198,
  "condi@@": 4199,
  "economy": 4200,
  "naughty": 4201,
  "regard": 4202,
  "writes": 4203,
  "confirm": 4204,
  "cleared": 4205,
  "edge": 4206,
  "para@@": 4207,
  "wages": 4208,
  "declining": 4209,
  "error": 4210,
  "knock": 4211,
  "cir@@": 4212,
  "Jesus": 4213,
  "asks": 4214,
  "stock": 4215,
  "satelli@@": 4216,
  "od@@": 4217,
  "conscience": 4218,
  "shor@@": 4219,
  "rol@@": 4220,
  "rings": 4221,
  "effe@@": 4222,
  "engaged": 4223,
  "eter@@": 4224,
  "shining": 4225,
  "scho@@": 4226,
  "significant": 4227,
  "disloyal": 4228,
  "hammer": 4229,
  "punishment": 4230,
  "eas@@": 4231,
  "belie@@": 4232,
  "comic": 4233,
  "amount": 4234,
  "memorized": 4235,
  "gers": 4236,
  "step@@": 4237,
  "Armenia": 4238,
  "heroes": 4239,
  "streets": 4240,
  "adap@@": 4241,
  "ly@@": 4242,
  "yell": 4243,
  "arti@@": 4244,
  "ering": 4245,
  "tches": 4246,
  "fier@@": 4247,
  "marathon": 4248,
  "siblings": 4249,
  "chi@@": 4250,
  "ris@@": 4251,
  "scored": 4252,
  "dol@@": 4253,
  "kitten": 4254,
  "introduce": 4255,
  "consult": 4256,
  "deli@@": 4257,
  "unbelie@@": 4258,
  "justifies": 4259,
  "20th": 4260,
  "months": 4261,
  "lemon": 4262,
  "ard": 4263,
  "travels": 4264,
  "pulled": 4265,
  "thin": 4266,
  "est": 4267,
  "drove": 4268,
  "cin@@": 4269,
  "nail": 4270,
  "silver": 4271,
  "nal": 4272,
  "intelligent": 4273,
  "come@@": 4274,
  "abstra@@": 4275,
  "alphabe@@": 4276,
  "cho": 4277,
  "Urumqi": 4278,
  "necess@@": 4279,
  "dy@@": 4280,
  "ine@@": 4281,
  "migran@@": 4282,
  "essor": 4283,
  "Management": 4284,
  "infor@@": 4285,
  "comfor@@": 4286,
  "neu@@": 4287,
  "vice": 4288,
  "Vir@@": 4289,
  "probab@@": 4290,
  "ench": 4291,
  "signifi@@": 4292,
  "ous@@": 4293,
  "mack": 4294,
  "€": 4295,
  "twor@@": 4296,
  "ini@@": 4297,
  "fr@@": 4298,
  "pal@@": 4299,
  "accompli@@": 4300,
  "Suzuki": 4301,
  "regre@@": 4302,
  "tier": 4303,
  "Pfirsichbaeumchen": 4304,
  "timist": 4305,
  "ility": 4306,
  "aner": 4307,
  "anic": 4308,
  "angri@@": 4309,
  "anges": 4310,
  "wle@@": 4311,
  "noti@@": 4312,
  "Hi@@": 4313,
  "laustropho@@": 4314,
  "identi@@": 4315,
  "41": 4316,
  "passi@@": 4317,
  "Fan@@": 4318,
  "Cannes": 4319,
  "quot@@": 4320,
  "moun@@": 4321,
  "vor@@": 4322,
  "bare": 4323,
  "cr@@": 4324,
  "hus@@": 4325,
  "Hesse": 4326,
  "tho@@": 4327,
  "Susan": 4328,
  "all@@": 4329,
  "pronoun@@": 4330,
  "Mathemati@@": 4331,
  "tas@@": 4332,
  "foo@@": 4333,
  "onable": 4334,
  "eg@@": 4335,
  "Hermann": 4336,
  "kin@@": 4337,
  "incre@@": 4338,
  "suici@@": 4339,
  "alar": 4340,
  "iet": 4341,
  "Appar@@": 4342,
  "imi@@": 4343,
  "Phobos": 4344,
  "gl@@": 4345,
  "rech@@": 4346,
  "fing": 4347,
  "Marie": 4348,
  "onder@@": 4349,
  "ussed": 4350,
  "ong": 4351,
  "sibi@@": 4352,
  "ten@@": 4353,
  "shoul@@": 4354,
  "Jones": 4355,
  "Arch@@": 4356,
  "Deimos": 4357,
  "ight": 4358,
  "hung": 4359,
  "Disneyland": 4360,
  "enced": 4361,
  "Laura": 4362,
  "Gre@@": 4363,
  "kie": 4364,
  "Aoi": 4365,
  "mom@@": 4366,
  "Libusza": 4367,
  "San": 4368,
  "ron": 4369,
  "5.@@": 4370,
  "erk": 4371,
  "good@@": 4372,
  "Lu@@": 4373,
  "Tanaka": 4374,
  "hau@@": 4375,
  "body": 4376,
  "recogni@@": 4377,
  "medic@@": 4378,
  "1@@": 4379,
  "200": 4380,
  "thered": 4381,
  "clou@@": 4382,
  "skir@@": 4383,
  "Min@@": 4384,
  "21": 4385,
  "weigh@@": 4386,
  "mbl@@": 4387,
  "expla@@": 4388,
  "analy@@": 4389,
  "accor@@": 4390,
  "seh@@": 4391,
  "erkraut": 4392,
  "vie@@": 4393,
  "Ira@@": 4394,
  "q": 4395,
  "ble@@": 4396,
  "perat@@": 4397,
  "platin@@": 4398,
  "sugge@@": 4399,
  "Bra@@": 4400,
  "1499": 4401,
  "Nazis": 4402,
  "ore": 4403,
  "mb@@": 4404,
  "Polygl@@": 4405,
  "1940": 4406,
  "oun@@": 4407,
  "tend": 4408,
  "ier": 4409,
  "sex@@": 4410,
  "ut@@": 4411,
  "charis@@": 4412,
  "wri@@": 4413,
  "inv@@": 4414,
  "dom": 4415,
  "may@@": 4416,
  "ń": 4417,
  "trem@@": 4418,
  "bere@@": 4419,
  "4": 4420,
  "anxi@@": 4421,
  "atten@@": 4422,
  "Tai@@": 4423,
  "gn@@": 4424,
  "ese": 4425,
  "1000": 4426,
  "123": 4427,
  "ishment": 4428,
  "Kazu@@": 4429,
  "Tereshkova": 4430,
  "mation": 4431,
  "cei@@": 4432,
  "sons": 4433,
  "Afghanistan": 4434,
  "snor@@": 4435,
  "Valentina": 4436,
  "1914": 4437,
  "roati@@": 4438,
  "ert": 4439,
  "pas": 4440,
  "hair@@": 4441,
  "Clyde": 4442,
  "La@@": 4443,
  "Union": 4444,
  "Koizumi": 4445,
  "compu@@": 4446,
  "fall@@": 4447,
  "kulele": 4448,
  "fau@@": 4449,
  "mete@@": 4450,
  "Universi@@": 4451,
  "stand@@": 4452,
  "gram@@": 4453,
  "uri@@": 4454,
  "Tombaugh": 4455,
  "clean@@": 4456,
  "Pluto": 4457,
  "gla@@": 4458,
  "U.S@@": 4459,
  "Col@@": 4460,
  "umbus": 4461,
  "Ti@@": 4462,
  "ar": 4463,
  "serv@@": 4464,
  "expen@@": 4465,
  "Francisco": 4466,
  "grou@@": 4467,
  "Mon@@": 4468,
  "1492": 4469,
  "free@@": 4470,
  "Carlton": 4471,
  "Sarah": 4472,
  "De@@": 4473,
  "3,@@": 4474,
  "drow@@": 4475,
  "Freddy": 4476,
  "rt": 4477,
  "iel@@": 4478,
  "whi@@": 4479,
  "Iran": 4480,
  "turning": 4481,
  "ened": 4482,
  "xe": 4483,
  "ici@@": 4484,
  "thie@@": 4485,
  "ans@@": 4486,
  "wer@@": 4487,
  "grun@@": 4488,
  "barn": 4489,
  "BYR": 4490,
  "000,@@": 4491,
  "ish@@": 4492,
  "stran@@": 4493,
  "foot@@": 4494,
  "bedro@@": 4495,
  "sie": 4496,
  "tro@@": 4497,
  "99": 4498,
  "squ@@": 4499,
  "kar@@": 4500,
  "000.@@": 4501,
  "les@@": 4502,
  "86,400": 4503,
  "inno@@": 4504,
  "Mar@@": 4505,
  "Malaysia": 4506,
  "lt": 4507,
  "Robert": 4508,
  "recog@@": 4509,
  "P": 4510,
  "Bo@@": 4511,
  "blon@@": 4512,
  "Mordred": 4513,
  "stab@@": 4514,
  "9@@": 4515,
  "stro@@": 4516,
  "win@@": 4517,
  "atri@@": 4518,
  "ein": 4519,
  "tatoeba.org": 4520,
  "occur@@": 4521,
  "fere": 4522,
  "tue": 4523,
  "belon@@": 4524,
  "Lou@@": 4525,
  "mach@@": 4526,
  "iden": 4527,
  "eba": 4528,
  "parti@@": 4529,
  "ls": 4530,
  "reje@@": 4531,
  "uns@@": 4532,
  "Got@@": 4533,
  "alter": 4534,
  "Himekusa": 4535,
  "Won": 4536,
  "McDonald": 4537,
  "ward": 4538,
  "0@@": 4539,
  "Pro@@": 4540,
  "holic": 4541,
  "tten": 4542,
  "placed": 4543,
  "ject": 4544,
  "stir@@": 4545,
  "Simina": 4546,
  "chite@@": 4547,
  "Portugal": 4548,
  "pint": 4549,
  "November": 4550,
  "une": 4551,
  "Marys": 4552,
  "Pantheon": 4553,
  "ebook": 4554,
  "ever@@": 4555,
  "Danny": 4556,
  "sou@@": 4557,
  "Lancelot": 4558,
  "Sussex": 4559,
  "Brunswick": 4560,
  "shoo@@": 4561,
  "kaisha": 4562,
  "Argentini@@": 4563,
  "profession@@": 4564,
  "geni@@": 4565,
  "guish": 4566,
  "volved": 4567,
  "Elena": 4568,
  "acqua@@": 4569,
  "ult": 4570,
  "Bloody": 4571,
  "thly": 4572,
  "yo": 4573,
  "Ge@@": 4574,
  "cker": 4575,
  "April": 4576,
  "Febru@@": 4577,
  "Volapük": 4578,
  "rem@@": 4579,
  "SSH": 4580,
  "kni@@": 4581,
  "suppos@@": 4582,
  "ills": 4583,
  "succe@@": 4584,
  "Shu": 4585,
  "U.N@@": 4586,
  "Interlingui@@": 4587,
  "falls": 4588,
  "Windows": 4589,
  "Chile": 4590,
  "tened": 4591,
  "lingui@@": 4592,
  "slow@@": 4593,
  "sy@@": 4594,
  "sche@@": 4595,
  "Pon@@": 4596,
  "hor@@": 4597,
  "ushed": 4598,
  "gic": 4599,
  "ends": 4600,
  "Blewett": 4601,
  "Liby@@": 4602,
  "Sil@@": 4603,
  "80": 4604,
  "500,000": 4605,
  "cele@@": 4606,
  "wered": 4607,
  "rot": 4608,
  "ario": 4609,
  "imagin@@": 4610,
  "Fung": 4611,
  "oll@@": 4612,
  "nony@@": 4613,
  "state": 4614,
  "oxy@@": 4615,
  "inner": 4616,
  "contra@@": 4617,
  "Sarajevo": 4618,
  "Cola": 4619,
  "Her@@": 4620,
  "Dan@@": 4621,
  "ster@@": 4622,
  "Coca": 4623,
  "nar@@": 4624,
  "Dam@@": 4625,
  "Peterborough": 4626,
  "Tor@@": 4627,
  "Connie": 4628,
  "mous": 4629,
  "ssed": 4630,
  "nor@@": 4631,
  "moron": 4632,
  "kkie": 4633,
  "chil@@": 4634,
  "tural": 4635,
  "Nancy": 4636,
  "rupt": 4637,
  "opportun@@": 4638,
  "xt": 4639,
  "fortun@@": 4640,
  "Yuriko": 4641,
  "lated": 4642,
  "simu@@": 4643,
  "ilo": 4644,
  "br@@": 4645,
  "lar@@": 4646,
  "ush": 4647,
  "Franklin": 4648,
  "met@@": 4649,
  "1968": 4650,
  "erist": 4651,
  "abri@@": 4652,
  "Oxford": 4653,
  "Belgi@@": 4654,
  "repor@@": 4655,
  "Galile@@": 4656,
  "absolute": 4657,
  "Bacchus": 4658,
  "Callisto": 4659,
  "swea@@": 4660,
  "kidnap@@": 4661,
  "Yumi": 4662,
  "reli@@": 4663,
  "tom@@": 4664,
  "able@@": 4665,
  "asp@@": 4666,
  "laf": 4667,
  "training": 4668,
  "crow@@": 4669,
  "bli@@": 4670,
  "Lionel": 4671,
  "­": 4672,
  "Berliner": 4673,
  "Messi": 4674,
  "tar@@": 4675,
  "Party": 4676,
  "ims": 4677,
  "bic@@": 4678,
  "Fo@@": 4679,
  "burg": 4680,
  "Teuto@@": 4681,
  "Bat@@": 4682,
  "zen": 4683,
  "24": 4684,
  "hur@@": 4685,
  "preten@@": 4686,
  "rub@@": 4687,
  "gion": 4688,
  "person@@": 4689,
  "impor@@": 4690,
  "Timmy": 4691,
  "Sam": 4692,
  "Paolo": 4693,
  "collea@@": 4694,
  "despi@@": 4695,
  "cour@@": 4696,
  "Belie@@": 4697,
  "ros": 4698,
  "iden@@": 4699,
  "differ@@": 4700,
  "Hideo": 4701,
  "bel": 4702,
  "Noguchi": 4703,
  "1928": 4704,
  "Em@@": 4705,
  "9": 4706,
  "anni@@": 4707,
  "bes": 4708,
  "olled": 4709,
  "Wenjin": 4710,
  "reno@@": 4711,
  "ane": 4712,
  "ins@@": 4713,
  "thin@@": 4714,
  "Ger@@": 4715,
  "Taninna": 4716,
  "row@@": 4717,
  "blem": 4718,
  "moder@@": 4719,
  "tunnel": 4720,
  "Bei@@": 4721,
  "app": 4722,
  "teen": 4723,
  "miss@@": 4724,
  "Nagashim@@": 4725,
  "lung": 4726,
  "gif@@": 4727,
  "1992": 4728,
  "vin@@": 4729,
  "Herzego@@": 4730,
  "Ob@@": 4731,
  "oppor@@": 4732,
  "ton": 4733,
  "lity": 4734,
  "tune": 4735,
  "Bos@@": 4736,
  "intuitive": 4737,
  "ffe": 4738,
  "troubl@@": 4739,
  "fur@@": 4740,
  "unded": 4741,
  "Kyoko": 4742,
  "trans@@": 4743,
  "main@@": 4744,
  "264405": 4745,
  "Wir@@": 4746,
  "#": 4747,
  "Lon@@": 4748,
  "Susanna": 4749,
  "ckly": 4750,
  "Tamaro": 4751,
  "tis@@": 4752,
  "oted": 4753,
  "Maruta": 4754,
  "sue": 4755,
  "musi@@": 4756,
  "chea@@": 4757,
  "Obama": 4758,
  "justi@@": 4759,
  "serva@@": 4760,
  "Tech@@": 4761,
  "pel@@": 4762,
  "yama": 4763,
  "gh": 4764,
  "are@@": 4765,
  "Fran@@": 4766,
  "Sato@@": 4767,
  "ange": 4768,
  "gestu@@": 4769,
  "Edo": 4770,
  "od": 4771,
  "pli@@": 4772,
  "Godot": 4773,
  "Beethoven": 4774,
  "gor@@": 4775,
  "Engli@@": 4776,
  "Grant": 4777,
  "cocktail": 4778,
  "ta": 4779,
  "ingl@@": 4780,
  "ik@@": 4781,
  "rep@@": 4782,
  "inted": 4783,
  "mur@@": 4784,
  "icient": 4785,
  "Pas@@": 4786,
  "ried": 4787,
  "eff@@": 4788,
  "compla@@": 4789,
  "uns": 4790,
  "Pay@@": 4791,
  "yrami@@": 4792,
  "Stradi@@": 4793,
  "edu@@": 4794,
  "ont": 4795,
  "ell": 4796,
  "stantly": 4797,
  "exer@@": 4798,
  "osen": 4799,
  "Asi@@": 4800,
  "Gar@@": 4801,
  "clos@@": 4802,
  "stration": 4803,
  "ment@@": 4804,
  "osts": 4805,
  "Kobol@@": 4806,
  "aly@@": 4807,
  "semi@@": 4808,
  "33": 4809,
  "rs": 4810,
  "thei@@": 4811,
  "Wilder": 4812,
  "misunder@@": 4813,
  "feel@@": 4814,
  "lowing": 4815,
  "site": 4816,
  "cle": 4817,
  "wat@@": 4818,
  "Alfred": 4819,
  "Wra@@": 4820,
  "pera@@": 4821,
  "appear@@": 4822,
  "automa@@": 4823,
  "mista@@": 4824,
  "kistan@@": 4825,
  "sym@@": 4826,
  "cloth@@": 4827,
  "Rick": 4828,
  "pointment": 4829,
  "disap@@": 4830,
  "shine": 4831,
  "Kakogawa": 4832,
  "tiv@@": 4833,
  "aggres@@": 4834,
  "flexi@@": 4835,
  ".m": 4836,
  "und": 4837,
  "cro@@": 4838,
  "eled": 4839,
  "ref@@": 4840,
  "Austri@@": 4841,
  "Ele@@": 4842,
  "Yoda": 4843,
  "Ceres": 4844,
  "fet@@": 4845,
  "1804": 4846,
  "bun@@": 4847,
  "qua@@": 4848,
  "allergi@@": 4849,
  "cident": 4850,
  "eit": 4851,
  "expe@@": 4852,
  "spr@@": 4853,
  "moti@@": 4854,
  "xes": 4855,
  "Mohand": 4856,
  "prison@@": 4857,
  "Bea@@": 4858,
  "jolie": 4859,
  "jolly": 4860,
  "appreci@@": 4861,
  "volunte@@": 4862,
  "stan@@": 4863,
  "Carlsen": 4864,
  "Magnus": 4865,
  "vices": 4866,
  "90@@": 4867,
  "chair@@": 4868,
  "iPhone": 4869,
  "Takahashi": 4870,
  "mometer": 4871,
  "visi@@": 4872,
  "iled": 4873,
  "lable": 4874,
  "eigh@@": 4875,
  "stom@@": 4876,
  "by@@": 4877,
  "ook": 4878,
  "pic": 4879,
  "rug": 4880,
  "rangements": 4881,
  "Jan": 4882,
  "radi@@": 4883,
  "week@@": 4884,
  "eb@@": 4885,
  "ick": 4886,
  "pleas@@": 4887,
  "epe@@": 4888,
  "nam@@": 4889,
  "diff@@": 4890,
  "dic@@": 4891,
  "wers": 4892,
  "sak@@": 4893,
  "hosp@@": 4894,
  "fer@@": 4895,
  "uncool": 4896,
  "lover": 4897,
  "ority": 4898,
  "ession": 4899,
  "dau@@": 4900,
  "whe@@": 4901,
  "enty": 4902,
  "Stephen": 4903,
  "D": 4904,
  "Yann": 4905,
  "Lei": 4906,
  "Nara": 4907,
  "ell@@": 4908,
  "lar": 4909,
  "Sp@@": 4910,
  "bai@@": 4911,
  "zer@@": 4912,
  "digit@@": 4913,
  "Baku": 4914,
  "rying": 4915,
  "2003": 4916,
  "Barbuda": 4917,
  "ficial": 4918,
  "Korol@@": 4919,
  "comm@@": 4920,
  "billi@@": 4921,
  "Meteor@@": 4922,
  "Instit@@": 4923,
  "bis@@": 4924,
  "1957": 4925,
  "Sputni@@": 4926,
  "zie@@": 4927,
  "nie@@": 4928,
  "1920": 4929,
  "Antigua": 4930,
  "mates": 4931,
  "fig@@": 4932,
  "Tra@@": 4933,
  "das": 4934,
  "clas@@": 4935,
  "Tallinn": 4936,
  "Or@@": 4937,
  "gani@@": 4938,
  "Feng": 4939,
  "prophe@@": 4940,
  "irs": 4941,
  "greet@@": 4942,
  "curi@@": 4943,
  "paring": 4944,
  "alle@@": 4945,
  "nau@@": 4946,
  "call@@": 4947,
  "eth": 4948,
  "unken": 4949,
  "nifi@@": 4950,
  "ski@@": 4951,
  "Takeshi": 4952,
  "ath@@": 4953,
  "Yamashita": 4954,
  "Keiko": 4955,
  "sedu@@": 4956,
  "Sei@@": 4957,
  "Hirayama": 4958,
  "Star@@": 4959,
  "Paula": 4960,
  "1970": 4961,
  "Nagoya": 4962,
  "Werner": 4963,
  "ude": 4964,
  "mily": 4965,
  "Bell": 4966,
  "Toki": 4967,
  "Haiti": 4968,
  "dress@@": 4969,
  "album": 4970,
  "Pole": 4971,
  "Nor@@": 4972,
  "ga": 4973,
  "practi@@": 4974,
  "Mandar@@": 4975,
  "amin": 4976,
  "Pona": 4977,
  "Scot@@": 4978,
  "oline": 4979,
  "ort": 4980,
  "toler@@": 4981,
  "Ono": 4982,
  "Ricardo": 4983,
  "wal@@": 4984,
  "absor@@": 4985,
  "Balmoral": 4986,
  "Castle": 4987,
  "Herzog": 4988,
  "1876": 4989,
  "39": 4990,
  "BMW": 4991,
  "unt": 4992,
  "enga@@": 4993,
  "arsen@@": 4994,
  "Er@@": 4995,
  "bend": 4996,
  "ug": 4997,
  "Java": 4998,
  "alace": 4999,
  "Virginia": 5000,
  "Fort": 5001,
  "ement": 5002,
  "consi@@": 5003,
  "ggl@@": 5004,
  "new@@": 5005,
  "flation": 5006,
  "89": 5007,
  "opa@@": 5008,
  "ree": 5009,
  "ber@@": 5010,
  "Statue": 5011,
  "hy@@": 5012,
  "nee@@": 5013,
  "tour@@": 5014,
  "Kounosuke": 5015,
  "wol@@": 5016,
  "opard": 5017,
  "illed": 5018,
  "Elisa": 5019,
  "2000": 5020,
  "tran@@": 5021,
  "tons": 5022,
  "pression": 5023,
  "App@@": 5024,
  "Sakazaki": 5025,
  "ffiti": 5026,
  "THE": 5027,
  "ALFEE": 5028,
  "ost": 5029,
  "semidefin@@": 5030,
  "matrix": 5031,
  "H": 5032,
  "diag@@": 5033,
  "hing": 5034,
  "photo@@": 5035,
  "orig@@": 5036,
  "rar@@": 5037,
  "din@@": 5038,
  "bag@@": 5039,
  "Taver@@": 5040,
  "En@@": 5041,
  "accep@@": 5042,
  "depri@@": 5043,
  "graphi@@": 5044,
  "Rapunzel": 5045,
  "orill@@": 5046,
  "cou@@": 5047,
  "ung@@": 5048,
  "histor@@": 5049,
  "wr@@": 5050,
  "betes": 5051,
  "244": 5052,
  "2012": 5053,
  "San@@": 5054,
  "Spencer": 5055,
  "chas@@": 5056,
  "tter@@": 5057,
  "adv@@": 5058,
  "ich@@": 5059,
  "bel@@": 5060,
  "loo@@": 5061,
  "transpor@@": 5062,
  "stest": 5063,
  "Kumiko": 5064,
  "alax@@": 5065,
  "Hawking": 5066,
  "Finn@@": 5067,
  "oph@@": 5068,
  "Sawada": 5069,
  "contro@@": 5070,
  "cient": 5071,
  "nuggets": 5072,
  "Muiriel": 5073,
  "stry": 5074,
  "Sy@@": 5075,
  "cess@@": 5076,
  "alco@@": 5077,
  "Pen@@": 5078,
  "illin": 5079,
  "hol": 5080,
  "indu@@": 5081,
  "mes@@": 5082,
  "winner": 5083,
  "solo": 5084,
  "mitted": 5085,
  "Angli@@": 5086,
  "pull@@": 5087,
  "boy@@": 5088,
  "villa@@": 5089,
  "turt@@": 5090,
  "Mahler": 5091,
  "addi@@": 5092,
  "Lyusya": 5093,
  "Tur@@": 5094,
  "disc@@": 5095,
  "otive": 5096,
  "frei@@": 5097,
  "ously": 5098,
  "Dresden": 5099,
  "Meva": 5100,
  "suff@@": 5101,
  "inea": 5102,
  "regi@@": 5103,
  "preci@@": 5104,
  "itation": 5105,
  "6": 5106,
  "umb": 5107,
  "indis@@": 5108,
  "Cali@@": 5109,
  "ll@@": 5110,
  "NASA": 5111,
  "enth@@": 5112,
  "ambus@@": 5113,
  "Limburger": 5114,
  "leman": 5115,
  "365": 5116,
  "gent@@": 5117,
  "Afri@@": 5118,
  "gator": 5119,
  "and@@": 5120,
  "bi": 5121,
  "fes@@": 5122,
  "dcasts": 5123,
  "cation": 5124,
  "stop@@": 5125,
  "continu@@": 5126,
  "ld": 5127,
  "Mos@@": 5128,
  "Che@@": 5129,
  "chen": 5130,
  "Florida": 5131,
  "investi@@": 5132,
  "ill@@": 5133,
  "osau@@": 5134,
  "lea@@": 5135,
  "repu@@": 5136,
  "plau@@": 5137,
  "fif@@": 5138,
  "apart@@": 5139,
  "bow@@": 5140,
  "der@@": 5141,
  "Matthew": 5142,
  "drea@@": 5143,
  "Marilla": 5144,
  "unreali@@": 5145,
  "Land": 5146,
  "secre@@": 5147,
  "tire": 5148,
  "Emet": 5149,
  "len@@": 5150,
  "suggesti@@": 5151,
  "Andorra": 5152,
  "ffe@@": 5153,
  "situ@@": 5154,
  "grea@@": 5155,
  "ycle": 5156,
  "cken": 5157,
  "import@@": 5158,
  "gery": 5159,
  "sters": 5160,
  "We@@": 5161,
  "hood": 5162,
  "Lob@@": 5163,
  "xis": 5164,
  "tick@@": 5165,
  "diction@@": 5166,
  "Hotel": 5167,
  "Hilton": 5168,
  "dru@@": 5169,
  "Kie@@": 5170,
  "ena": 5171,
  "ide@@": 5172,
  "pointed": 5173,
  "bal@@": 5174,
  "Okrent": 5175,
  "Arika": 5176,
  "Lan@@": 5177,
  "vented": 5178,
  "Ori@@": 5179,
  "bom@@": 5180,
  "uch": 5181,
  "Marley": 5182,
  "quali@@": 5183,
  "sung": 5184,
  "800": 5185,
  "ey@@": 5186,
  "hat@@": 5187,
  "Sascha": 5188,
  "aphi@@": 5189,
  "lingu@@": 5190,
  "spon@@": 5191,
  "home@@": 5192,
  "bald": 5193,
  "Mal@@": 5194,
  "immedi@@": 5195,
  "los@@": 5196,
  "ghai": 5197,
  "eing": 5198,
  "Kin@@": 5199,
  "Ber@@": 5200,
  "trea@@": 5201,
  "loses": 5202,
  "stage": 5203,
  "lands": 5204,
  "Roger": 5205,
  "mus": 5206,
  "conscious": 5207,
  "cock@@": 5208,
  "Nonon": 5209,
  "Mont": 5210,
  "Blanc": 5211,
  "genu@@": 5212,
  "ards": 5213,
  "ft@@": 5214,
  "edi@@": 5215,
  "stant": 5216,
  "disp@@": 5217,
  "1003": 5218,
  "Andromedae": 5219,
  "Upsilon": 5220,
  "plan@@": 5221,
  "2016": 5222,
  "hel@@": 5223,
  "Butler": 5224,
  "Marcy": 5225,
  "1999": 5226,
  "Produ@@": 5227,
  "depen@@": 5228,
  "ren@@": 5229,
  "losoph@@": 5230,
  "-@@": 5231,
  "vili@@": 5232,
  "dle": 5233,
  "fro@@": 5234,
  "suspici@@": 5235,
  "proper@@": 5236,
  "Akiko": 5237,
  "ima@@": 5238,
  "surren@@": 5239,
  "stor@@": 5240,
  "Minnesota": 5241,
  "lowns": 5242,
  "Rus@@": 5243,
  "meas@@": 5244,
  "56": 5245,
  "1.3": 5246,
  "itely": 5247,
  "gebra": 5248,
  "ust": 5249,
  "gebr@@": 5250,
  "algebra@@": 5251,
  "Masao": 5252,
  "gress": 5253,
  "rat": 5254,
  "enjo@@": 5255,
  "var@@": 5256,
  "Skytree": 5257,
  "Elise": 5258,
  "Fü@@": 5259,
  "mer@@": 5260,
  "Markku": 5261,
  "super": 5262,
  "recei@@": 5263,
  "orrow": 5264,
  "rie@@": 5265,
  "Ly@@": 5266,
  "Hemingway": 5267,
  "stea@@": 5268,
  "ior": 5269,
  "nt": 5270,
  "cheer@@": 5271,
  "Okinawa": 5272,
  "°": 5273,
  "alien@@": 5274,
  "anu@@": 5275,
  "valu@@": 5276,
  "pai": 5277,
  "affine": 5278,
  "Sen@@": 5279,
  "flung": 5280,
  "Pok@@": 5281,
  "Adolf": 5282,
  "pollu@@": 5283,
  "mnasi@@": 5284,
  "lief": 5285,
  "Puma": 5286,
  "ddy": 5287,
  "Adidas": 5288,
  "fan@@": 5289,
  "fic": 5290,
  "mon": 5291,
  "spea@@": 5292,
  "Magdalena": 5293,
  "Basic": 5294,
  "Globish": 5295,
  "esman": 5296,
  "rich@@": 5297,
  "Hannibal": 5298,
  "fac@@": 5299,
  "tigu@@": 5300,
  "é@@": 5301,
  "Rudolf": 5302,
  "58": 5303,
  "appar@@": 5304,
  "tel": 5305,
  "Highway": 5306,
  "assu@@": 5307,
  "Hick": 5308,
  "Pe@@": 5309,
  "sport": 5310,
  "hyster@@": 5311,
  "spru@@": 5312,
  "remem@@": 5313,
  "Que@@": 5314,
  "consider@@": 5315,
  "inse@@": 5316,
  "firm": 5317,
  "chup": 5318,
  "ket@@": 5319,
  "CIA": 5320,
  "dest": 5321,
  "million@@": 5322,
  "nest": 5323,
  "ess@@": 5324,
  "sis": 5325,
  "Philipp@@": 5326,
  "dal": 5327,
  "happ@@": 5328,
  "Bill": 5329,
  "off@@": 5330,
  "sprin@@": 5331,
  "Mur": 5332,
  "Le": 5333,
  "pin": 5334,
  "chased": 5335,
  "teach@@": 5336,
  "Kato": 5337,
  "Incitatus": 5338,
  "aime": 5339,
  "Caligula": 5340,
  "Roy": 5341,
  "kraini@@": 5342,
  "rage": 5343,
  "evi@@": 5344,
  "illi@@": 5345,
  "dre@@": 5346,
  "hun@@": 5347,
  "Cholera": 5348,
  "Spenser": 5349,
  "(": 5350,
  "Im@@": 5351,
  "Ness": 5352,
  "Zamenhof": 5353,
  "ue": 5354,
  "Lazarus": 5355,
  "respon@@": 5356,
  "pack@@": 5357,
  "tement": 5358,
  "dent": 5359,
  "tru@@": 5360,
  "Jenny": 5361,
  "Loch": 5362,
  "simp@@": 5363,
  "2@@": 5364,
  ")": 5365,
  "Yo@@": 5366,
  "Lo@@": 5367,
  "spar@@": 5368,
  "kl@@": 5369,
  "stero@@": 5370,
  "simi@@": 5371,
  "gon": 5372,
  "Gorillas": 5373,
  "ttle": 5374,
  "bits": 5375,
  "ub@@": 5376,
  "Tycho": 5377,
  "Brahe": 5378,
  "pan@@": 5379,
  "equ@@": 5380,
  "bab@@": 5381,
  "dep@@": 5382,
  "port": 5383,
  "hang": 5384,
  "mond": 5385,
  "wei@@": 5386,
  "dor@@": 5387,
  "Corrie": 5388,
  "ander": 5389,
  "gil@@": 5390,
  "Ga@@": 5391,
  "za": 5392,
  "cil": 5393,
  "ern@@": 5394,
  "hin@@": 5395,
  "resul@@": 5396,
  "Nagasaki": 5397,
  "osp@@": 5398,
  "ava@@": 5399,
  "caff@@": 5400,
  "elec@@": 5401,
  "siden@@": 5402,
  "bor@@": 5403,
  "locker": 5404,
  "succ@@": 5405,
  "ei@@": 5406,
  "Ramudu": 5407,
  "Profes@@": 5408,
  "eins": 5409,
  "halt": 5410,
  "12": 5411,
  "bus@@": 5412,
  "Stre@@": 5413,
  "vide": 5414,
  "ghter": 5415,
  "mer": 5416,
  "1863": 5417,
  "oes": 5418,
  "frontation": 5419,
  "provo@@": 5420,
  "announ@@": 5421,
  "selves": 5422,
  "Giada": 5423,
  "ult@@": 5424,
  "peror": 5425,
  "danger@@": 5426,
  "Canadi@@": 5427,
  "politi@@": 5428,
  "UN": 5429,
  "mem@@": 5430,
  "pet@@": 5431,
  "pian@@": 5432,
  "elt": 5433,
  "130": 5434,
  "thes@@": 5435,
  "obli@@": 5436,
  "alth": 5437,
  "tment": 5438,
  "Chopin": 5439,
  "goodby@@": 5440,
  "ange@@": 5441,
  "dine": 5442,
  "lice": 5443,
  "Mission": 5444,
  "Astero@@": 5445,
  "clu@@": 5446,
  "tun@@": 5447,
  "Alfa": 5448,
  "num@@": 5449,
  "NumLock": 5450,
  "LED": 5451,
  "dium": 5452,
  "radio@@": 5453,
  "Pak": 5454,
  "posed": 5455,
  "fant": 5456,
  "Romeo": 5457,
  "anged": 5458,
  "Be@@": 5459,
  "eh@@": 5460,
  "kis@@": 5461,
  "bott@@": 5462,
  "Linda": 5463,
  "Dan": 5464,
  "iron@@": 5465,
  "ells": 5466,
  "vels": 5467,
  "zin@@": 5468,
  "ately": 5469,
  "applau@@": 5470,
  "lor@@": 5471,
  "16@@": 5472,
  "spa@@": 5473,
  "advi@@": 5474,
  "regar@@": 5475,
  "Naomi": 5476,
  "strateg@@": 5477,
  "my@@": 5478,
  "17@@": 5479,
  "nophob@@": 5480,
  "Erik": 5481,
  "ller": 5482,
  "5000": 5483,
  "nick@@": 5484,
  "Zezo": 5485,
  "ori": 5486,
  "Ma@@": 5487,
  "Peter": 5488,
  "L@@": 5489,
  "tholi@@": 5490,
  "Ca@@": 5491,
  "1632": 5492,
  "km": 5493,
  "prev@@": 5494,
  "ender": 5495,
  "tann@@": 5496,
  "Einstein": 5497,
  "petent": 5498,
  "origin@@": 5499,
  "jun@@": 5500,
  "licen@@": 5501,
  "Ju@@": 5502,
  "soa@@": 5503,
  "Brandenburg": 5504,
  "ole": 5505,
  "reas@@": 5506,
  "mas@@": 5507,
  "loser": 5508,
  "38": 5509,
  "instin@@": 5510,
  "unds": 5511,
  "oft": 5512,
  "Dengli@@": 5513,
  "ks@@": 5514,
  "rant": 5515,
  "bal": 5516,
  "Su": 5517,
  "ene@@": 5518,
  "Daniel": 5519,
  "iktor": 5520,
  "vali@@": 5521,
  "Rom@@": 5522,
  "Sally": 5523,
  "transplan@@": 5524,
  "contradi@@": 5525,
  "Sal@@": 5526,
  "success@@": 5527,
  "1971": 5528,
  "ye@@": 5529,
  "ko@@": 5530,
  "univer@@": 5531,
  "ladis@@": 5532,
  "Dobro@@": 5533,
  "Georgi": 5534,
  "ma": 5535,
  "mathemati@@": 5536,
  "osmonau@@": 5537,
  "reco@@": 5538,
  "streng@@": 5539,
  "yu@@": 5540,
  "Chri@@": 5541,
  "Klein": 5542,
  "proble@@": 5543,
  "Techni@@": 5544,
  "Keeton": 5545,
  "Yokohama": 5546,
  "loy@@": 5547,
  "emp@@": 5548,
  "rief": 5549,
  "decor@@": 5550,
  "bran@@": 5551,
  "Hol@@": 5552,
  "don@@": 5553,
  "stronau@@": 5554,
  "sle@@": 5555,
  "iest": 5556,
  "electri@@": 5557,
  "Fra@@": 5558,
  "yball": 5559,
  "volle@@": 5560,
  "umber": 5561,
  "vide@@": 5562,
  "ken": 5563,
  "Dis@@": 5564,
  "So@@": 5565,
  "unch": 5566,
  "mbo@@": 5567,
  "stank": 5568,
  "progra@@": 5569,
  "shes": 5570,
  "Patricia": 5571,
  "pot@@": 5572,
  "gun@@": 5573,
  "trigonometri@@": 5574,
  "eless": 5575,
  "Er": 5576,
  "magaz@@": 5577,
  "nai@@": 5578,
  "Nixon": 5579,
  "1,@@": 5580,
  "keep@@": 5581,
  "4@@": 5582,
  "Koalas": 5583,
  "ouri@@": 5584,
  "ood": 5585,
  "fl@@": 5586,
  "smil@@": 5587,
  "bil@@": 5588,
  "affe@@": 5589,
  "lan@@": 5590,
  "ler@@": 5591,
  "vagin@@": 5592,
  "fore": 5593,
  "newsp@@": 5594,
  "Ogata": 5595,
  "descri@@": 5596,
  "auth@@": 5597,
  "Ka@@": 5598,
  "Greene": 5599,
  "Graham": 5600,
  "occ@@": 5601,
  "Met@@": 5602,
  "kilomet@@": 5603,
  "gling": 5604,
  "tom": 5605,
  "cho@@": 5606,
  "Protestan@@": 5607,
  "Guam": 5608,
  "Valent@@": 5609,
  "reque@@": 5610,
  "ences": 5611,
  "experi@@": 5612,
  "che": 5613
}